<unk>	0
<s>	0
</s>	0
<pad>	0
<par>	0
<sys>	0
<que>	0
<ans>	0
<cot>	0
<rag>	0
<new>	0
s	-3.14761
▁	-3.16159
▁the	-3.36379
.	-3.4566
,	-3.48569
▁of	-4.07306
▁and	-4.20426
▁a	-4.30705
▁to	-4.3223
▁in	-4.37033
ing	-4.55057
'	-4.6239
▁The	-4.83779
▁is	-4.89795
▁that	-4.98735
ed	-5.00313
▁for	-5.2153
-	-5.21728
e	-5.26318
ly	-5.34585
▁as	-5.45211
▁Thi	-5.46519
▁with	-5.47814
t	-5.51092
▁was	-5.55241
n	-5.58089
m	-5.60243
▁I	-5.64328
▁on	-5.66173
d	-5.70966
▁from	-5.78565
▁this	-5.79579
y	-5.80819
▁or	-5.82394
ir	-5.86431
▁about	-5.86867
▁be	-5.87912
▁by	-5.88941
:	-5.90275
▁specific	-5.91093
▁it	-5.9154
al	-5.93238
re	-5.9996
▁can	-6.00144
▁are	-6.01116
▁which	-6.04876
▁A	-6.04978
"	-6.10964
▁you	-6.11536
▁more	-6.11669
**	-6.17151
le	-6.20447
▁"	-6.21191
▁-	-6.29087
▁his	-6.2915
▁(	-6.29179
▁**	-6.29901
er	-6.30949
▁would	-6.33878
▁than	-6.34497
o	-6.39781
a	-6.45299
▁these	-6.46093
▁not	-6.46453
▁at	-6.49848
▁However	-6.50604
)	-6.51785
▁=	-6.51893
▁have	-6.52932
▁an	-6.54408
▁but	-6.54841
▁its	-6.58225
▁other	-6.58788
▁when	-6.60233
▁B	-6.62488
▁between	-6.62748
ic	-6.63501
c	-6.63597
during	-6.64427
▁S	-6.65857
r	-6.67848
▁C	-6.71106
i	-6.7634
▁different	-6.76838
th	-6.78014
in	-6.78748
▁were	-6.7939
▁particular	-6.80839
▁where	-6.81311
▁while	-6.81912
or	-6.82126
ion	-6.82377
▁has	-6.82503
▁complex	-6.82587
es	-6.83023
S	-6.83973
l	-6.84348
▁your	-6.84531
▁they	-6.87503
▁information	-6.88411
▁significant	-6.90262
▁how	-6.91526
▁like	-6.92832
▁provide	-6.92891
▁Yes	-6.93749
g	-6.96029
▁one	-6.96244
p	-6.97314
ar	-6.9993
▁through	-7.01067
en	-7.01557
▁he	-7.02006
▁time	-7.0222
▁had	-7.02729
▁cannot	-7.02841
ation	-7.05173
▁over	-7.06795
▁system	-7.07143
▁both	-7.08887
b	-7.09013
▁including	-7.09238
▁part	-7.09355
k	-7.1001
▁total	-7.10216
A	-7.11469
▁question	-7.11993
▁first	-7.1206
▁In	-7.12143
▁Whi	-7.12579
▁most	-7.13504
▁problem	-7.13825
▁detailed	-7.14263
▁un	-7.14814
▁unsur	-7.15739
▁all	-7.16052
▁indeed	-7.17486
▁typically	-7.17553
▁rather	-7.17614
▁two	-7.18256
on	-7.19054
▁what	-7.19689
▁period	-7.19848
▁each	-7.21149
▁into	-7.21282
▁being	-7.22366
▁work	-7.22861
an	-7.24536
u	-7.24586
▁require	-7.25648
▁been	-7.26696
f	-7.26964
able	-7.2761
lso	-7.30091
el	-7.30202
×	-7.31066
▁1	-7.31734
▁represents	-7.32777
▁various	-7.33148
▁who	-7.33622
▁used	-7.33999
▁2	-7.34643
▁approach	-7.34985
C	-7.37095
▁does	-7.38006
▁4	-7.38257
cross	-7.38698
▁per	-7.38965
▁depend	-7.39261
ur	-7.39277
▁after	-7.39293
ther	-7.39521
▁p	-7.39741
▁people	-7.40135
▁under	-7.40295
▁we	-7.40395
h	-7.40575
us	-7.41631
ra	-7.42038
ro	-7.42244
▁without	-7.43631
▁D	-7.44163
▁make	-7.44921
▁involves	-7.45184
▁process	-7.45765
ment	-7.46937
▁3	-7.47738
▁number	-7.47751
▁de	-7.47862
▁within	-7.47956
ref	-7.48134
▁data	-7.49405
ive	-7.49453
▁name	-7.4949
▁specifically	-7.49497
▁It	-7.50293
▁though	-7.50855
2	-7.50982
4	-7.51468
▁*	-7.51763
▁+	-7.52642
▁years	-7.53002
▁type	-7.54024
it	-7.54039
▁making	-7.56158
▁such	-7.56185
▁development	-7.56413
ve	-7.56821
▁M	-7.57227
0	-7.57306
▁These	-7.5783
▁key	-7.58067
▁factors	-7.58286
▁same	-7.58855
based	-7.59135
▁E	-7.59454
st	-7.59609
▁any	-7.60133
ch	-7.6034
▁re	-7.6037
▁did	-7.60742
ri	-7.6084
▁there	-7.61326
▁because	-7.6139
▁some	-7.62192
▁W	-7.62205
▁need	-7.62966
▁broader	-7.63015
5	-7.63803
▁use	-7.64105
▁might	-7.64218
9	-7.65505
▁t	-7.65687
▁population	-7.658
▁F	-7.6629
li	-7.66386
),	-7.66526
1	-7.66815
ity	-7.67027
▁may	-7.67192
▁her	-7.67537
▁do	-7.67574
▁conditions	-7.67944
▁city	-7.68227
▁6	-7.68601
▁actually	-7.69251
▁historical	-7.69649
ical	-7.69695
et	-7.71001
▁18	-7.71049
▁8	-7.71199
▁7	-7.71326
▁5	-7.71359
▁established	-7.71734
il	-7.71993
M	-7.72427
▁legal	-7.7256
▁reflect	-7.72976
▁whe	-7.73868
ma	-7.74304
at	-7.74762
▁so	-7.75317
▁multiple	-7.75472
ers	-7.75691
▁T	-7.76848
came	-7.77141
▁means	-7.77743
▁analysis	-7.78029
▁P	-7.7829
▁G	-7.78636
est	-7.78704
z	-7.7875
▁only	-7.79214
ol	-7.79221
ta	-7.79688
▁relationship	-7.79991
▁new	-7.80165
▁He	-7.80405
▁major	-7.80444
w	-7.81145
▁water	-7.81528
▁three	-7.81611
▁around	-7.82221
ne	-7.8242
ist	-7.82606
▁state	-7.82715
▁significantly	-7.82807
▁economic	-7.82905
ies	-7.83377
▁later	-7.84491
▁For	-7.84718
▁c	-7.84871
▁systems	-7.85513
▁Whe	-7.8563
3	-7.85738
▁details	-7.85859
ine	-7.86003
▁regard	-7.8635
lo	-7.86482
▁no	-7.86579
6	-7.86725
▁function	-7.86846
id	-7.86913
▁political	-7.8706
8	-7.87358
▁important	-7.87379
▁structure	-7.87449
▁early	-7.87676
to	-7.87719
▁many	-7.8797
ia	-7.88287
▁So	-7.88405
▁them	-7.8846
▁result	-7.88613
▁before	-7.88676
▁approximate	-7.89011
▁even	-7.89061
▁f	-7.89079
/	-7.89088
▁exact	-7.89515
▁area	-7.89644
▁available	-7.90257
▁help	-7.90257
▁---	-7.9054
la	-7.90876
▁year	-7.91737
▁current	-7.9201
T	-7.93289
▁position	-7.93349
▁compared	-7.93638
ate	-7.93667
▁fundamental	-7.93771
▁will	-7.93783
▁known	-7.94096
▁allow	-7.94645
ian	-7.94711
▁What	-7.95335
ent	-7.96025
olution	-7.96338
x	-7.96386
▁standard	-7.96551
um	-7.96954
▁could	-7.97128
▁context	-7.9722
due	-7.97442
is	-7.97551
▁production	-7.98025
E	-7.98162
▁group	-7.98637
vi	-7.98755
▁rate	-7.99376
▁law	-7.99598
▁10	-7.99997
▁U	-8.00169
▁O	-8.00255
ous	-8.00288
7	-8.0031
▁up	-8.0047
▁19	-8.00726
P	-8.00765
mong	-8.01083
▁million	-8.01497
na	-8.01952
▁power	-8.02062
ter	-8.0245
I	-8.02532
▁changes	-8.02739
▁maintain	-8.03222
▁research	-8.0354
▁region	-8.03627
▁found	-8.03973
volving	-8.04178
▁individual	-8.04542
▁His	-8.04563
▁don	-8.04669
R	-8.049
▁high	-8.05016
ad	-8.05093
▁original	-8.05692
▁history	-8.05739
am	-8.05771
▁form	-8.05823
L	-8.05885
▁made	-8.06373
▁referr	-8.06519
ary	-8.07308
te	-8.07367
▁out	-8.07629
▁role	-8.07823
ce	-8.08208
▁well	-8.08238
▁b	-8.0827
▁just	-8.08432
likely	-8.08465
v	-8.08531
▁relative	-8.08569
▁9	-8.08575
▁groups	-8.08804
ru	-8.08944
▁appears	-8.09047
▁mechanisms	-8.09049
ry	-8.09138
▁beyond	-8.09532
).	-8.09573
▁along	-8.09725
▁using	-8.09744
The	-8.09842
D	-8.10092
▁size	-8.10632
B	-8.10801
▁vary	-8.10849
up	-8.10864
▁remains	-8.11315
▁complete	-8.11884
ant	-8.12193
til	-8.12606
▁support	-8.12794
▁occurred	-8.13144
▁several	-8.13808
▁precise	-8.13808
F	-8.13921
▁treatment	-8.13961
▁world	-8.14654
=	-8.14656
▁types	-8.14841
▁potential	-8.14901
co	-8.14904
▁No	-8.15037
▁certain	-8.15145
▁common	-8.15369
op	-8.15661
▁called	-8.15666
▁comprehensive	-8.16188
▁Bas	-8.16202
▁medical	-8.16536
▁government	-8.17006
▁answer	-8.17239
▁difference	-8.18243
▁become	-8.18371
▁operations	-8.18433
ha	-8.18669
po	-8.18695
▁body	-8.18888
<	-8.18944
ph	-8.18955
▁L	-8.19194
▁processes	-8.19251
▁confirm	-8.19278
▁if	-8.19883
▁affect	-8.20089
▁patterns	-8.20125
▁H	-8.21061
▁American	-8.21199
▁K	-8.21249
as	-8.21342
source	-8.21935
ect	-8.22007
▁involved	-8.22095
ul	-8.22227
▁mathematical	-8.22585
▁often	-8.22711
▁considered	-8.22765
sh	-8.22845
▁influence	-8.23036
▁military	-8.23059
O	-8.23142
▁correct	-8.23546
▁remain	-8.23548
▁point	-8.23675
▁generally	-8.23737
▁religious	-8.24064
▁species	-8.24064
▁against	-8.24074
▁real	-8.24169
▁comparison	-8.243
▁itself	-8.24812
▁United	-8.24813
▁nature	-8.24814
▁insight	-8.24829
▁since	-8.2498
ho	-8.25337
▁requires	-8.25383
▁N	-8.25474
ial	-8.25651
▁levels	-8.26126
▁direct	-8.2614
▁control	-8.26301
▁change	-8.26306
▁growth	-8.26358
▁method	-8.26641
▁long	-8.27175
▁value	-8.27284
▁country	-8.27491
▁represented	-8.27668
▁20	-8.27849
</	-8.28288
▁quit	-8.28354
▁life	-8.28394
▁#	-8.28409
▁following	-8.2862
ge	-8.28777
▁condition	-8.29074
▁works	-8.29101
▁understanding	-8.29211
▁traditional	-8.29249
▁own	-8.29388
▁social	-8.29419
▁know	-8.29433
H	-8.29867
▁suggests	-8.30275
tic	-8.30428
ti	-8.30696
▁units	-8.30804
▁age	-8.3086
▁much	-8.31011
▁less	-8.31167
▁access	-8.31397
hose	-8.31511
▁ask	-8.31851
▁primary	-8.3221
▁main	-8.32233
▁health	-8.32614
▁century	-8.32719
ince	-8.32815
▁framework	-8.32835
▁con	-8.32911
▁international	-8.33019
ism	-8.3312
▁Ma	-8.33144
▁non	-8.33471
age	-8.33561
ness	-8.33689
▁case	-8.34131
▁right	-8.34329
(	-8.34369
▁co	-8.3442
▁primari	-8.34662
▁terms	-8.3472
▁range	-8.34766
▁directly	-8.34766
▁family	-8.34836
▁market	-8.34851
."	-8.34862
>.	-8.34968
▁R	-8.35017
▁him	-8.35095
▁al	-8.35472
▁blood	-8.35491
▁death	-8.35494
▁public	-8.35825
▁four	-8.35827
▁energy	-8.35912
▁final	-8.35927
ach	-8.36109
▁concept	-8.36285
▁behavior	-8.36332
▁16	-8.36429
▁To	-8.36537
▁clear	-8.36697
ization	-8.36934
G	-8.36969
▁distinct	-8.37013
led	-8.37138
▁official	-8.37178
▁distribution	-8.37185
▁cultural	-8.37394
▁higher	-8.37429
de	-8.37473
▁general	-8.37589
▁term	-8.37967
▁small	-8.38278
▁15	-8.38361
▁throughout	-8.38489
▁human	-8.38843
im	-8.38893
▁understand	-8.39132
▁large	-8.40007
ang	-8.40061
▁Re	-8.40099
▁additional	-8.40421
▁end	-8.4048
▁g	-8.40598
▁acid	-8.40791
▁language	-8.40888
▁modern	-8.41074
▁impact	-8.41077
▁performance	-8.41082
▁We	-8.41442
▁areas	-8.41512
▁risk	-8.41519
▁St	-8.41838
▁represent	-8.42096
▁States	-8.42222
▁similar	-8.42408
▁cases	-8.42562
▁career	-8.42958
▁future	-8.43307
▁why	-8.43317
▁methods	-8.43371
▁me	-8.43661
ca	-8.43834
▁circumstances	-8.44214
▁straightforward	-8.44214
ance	-8.44351
pe	-8.44457
N	-8.4446
▁determine	-8.44508
▁establish	-8.44569
▁should	-8.4467
▁must	-8.4467
▁contain	-8.448
me	-8.44981
ill	-8.44983
▁design	-8.45083
un	-8.4523
▁numbers	-8.45325
▁find	-8.45457
▁single	-8.45608
▁overall	-8.45627
side	-8.45812
▁approaches	-8.45983
▁notable	-8.461
▁17	-8.46281
▁rates	-8.46393
▁reach	-8.4645
▁meaning	-8.46524
▁cause	-8.46772
▁evidence	-8.46985
▁disease	-8.46985
cal	-8.47418
▁local	-8.47482
be	-8.47813
ut	-8.47909
▁food	-8.47926
*	-8.48161
▁entirely	-8.4823
and	-8.48292
having	-8.48423
▁New	-8.48438
ting	-8.48925
▁k	-8.48955
ithout	-8.48992
▁12	-8.49026
▁figure	-8.4943
▁address	-8.49508
ck	-8.49826
tra	-8.49885
▁decision	-8.49918
▁1.	-8.50241
▁They	-8.50316
▁brain	-8.50326
mp	-8.50454
▁designed	-8.50548
ver	-8.50924
▁larger	-8.5094
▁include	-8.51097
▁given	-8.51481
▁record	-8.51763
▁practice	-8.51951
▁involve	-8.52582
▁physical	-8.5277
▁initial	-8.52788
▁second	-8.53168
▁calculation	-8.53506
▁pre	-8.53604
the	-8.5363
▁di	-8.53648
▁serves	-8.53668
man	-8.53792
he	-8.53905
▁then	-8.53935
pite	-8.53994
▁accurate	-8.54293
▁V	-8.54621
▁our	-8.54759
▁countries	-8.54781
▁definitive	-8.54803
▁movement	-8.55119
▁unit	-8.5549
ba	-8.55677
▁tax	-8.55692
▁women	-8.55793
▁difficult	-8.56264
▁associat	-8.56299
▁applications	-8.56381
▁sources	-8.56901
less	-8.57053
▁pattern	-8.57228
▁color	-8.57341
▁basic	-8.57343
▁European	-8.5738
di	-8.57459
che	-8.5751
▁regions	-8.57864
▁division	-8.5791
▁occurs	-8.57914
▁creat	-8.58041
▁An	-8.58111
ak	-8.58161
▁demonstrate	-8.58302
▁days	-8.58357
▁transition	-8.58384
▁still	-8.58387
j	-8.58428
ated	-8.58479
mi	-8.5861
▁related	-8.58749
▁national	-8.59014
▁2.	-8.59137
▁tell	-8.59496
▁down	-8.59501
▁developed	-8.59556
▁space	-8.59782
ng	-8.59892
▁War	-8.59901
▁Mo	-8.60103
▁show	-8.60164
▁she	-8.60341
.*	-8.60911
▁addition	-8.61112
▁place	-8.61132
▁w	-8.61238
ap	-8.61749
▁cost	-8.61769
ll	-8.61993
▁policy	-8.62127
▁together	-8.62128
▁person	-8.62187
▁states	-8.62289
▁lower	-8.62298
▁amount	-8.62413
ac	-8.63023
▁focus	-8.63339
ga	-8.63532
▁day	-8.63685
▁effects	-8.63686
▁individuals	-8.6371
▁Act	-8.63751
ors	-8.63795
▁substantial	-8.63825
▁full	-8.64037
▁model	-8.64062
ag	-8.64104
▁created	-8.6423
ized	-8.64265
▁federal	-8.64331
ab	-8.64398
ide	-8.64416
▁You	-8.64778
pa	-8.6505
▁v	-8.65083
und	-8.65117
▁organization	-8.65127
▁0	-8.65157
▁order	-8.65182
▁property	-8.65465
▁worth	-8.65689
▁indicate	-8.65839
▁properties	-8.66017
▁study	-8.66017
▁back	-8.66083
▁natural	-8.66104
▁14	-8.66333
▁equal	-8.66481
▁distinction	-8.66731
▁ability	-8.66965
▁Co	-8.67085
▁pressure	-8.67157
▁normal	-8.67257
land	-8.67477
ory	-8.67567
V	-8.67616
▁subsequent	-8.67731
▁base	-8.67752
▁Both	-8.67821
▁structures	-8.67988
ke	-8.68029
▁provid	-8.68261
▁explain	-8.68312
▁cells	-8.68388
▁word	-8.68545
va	-8.68559
one	-8.68587
▁prevent	-8.6878
▁comparative	-8.68892
▁sub	-8.69283
÷	-8.69475
▁present	-8.69765
▁earlier	-8.70063
ni	-8.7019
om	-8.70241
▁specialized	-8.70672
▁strong	-8.71067
bu	-8.71102
▁hours	-8.71189
▁des	-8.71224
▁technical	-8.7125
▁factor	-8.71387
▁provided	-8.71505
ow	-8.71723
▁occur	-8.71773
▁produce	-8.71787
der	-8.72104
▁film	-8.72415
▁weight	-8.72613
very	-8.7276
▁requirements	-8.72931
▁field	-8.73193
▁lead	-8.73212
da	-8.73265
ite	-8.73267
▁13	-8.73311
▁functions	-8.73387
▁##	-8.73669
▁trade	-8.73742
▁practices	-8.7407
▁vote	-8.74251
▁light	-8.74318
▁times	-8.7441
ell	-8.74583
▁create	-8.74597
▁crucial	-8.74898
▁China	-8.74914
▁began	-8.75012
▁take	-8.75177
▁actual	-8.75482
▁status	-8.75519
▁recognized	-8.75636
▁set	-8.75802
▁essentially	-8.75811
▁Ro	-8.75871
▁largest	-8.75944
▁separate	-8.75994
▁serve	-8.76121
▁dis	-8.76129
▁surface	-8.76144
▁practical	-8.76144
▁path	-8.76146
if	-8.76159
▁events	-8.76174
▁Ca	-8.76574
▁increase	-8.76589
▁flow	-8.76688
▁Ch	-8.76726
▁shift	-8.76773
ka	-8.7692
▁special	-8.77023
ities	-8.77093
do	-8.7713
▁ancient	-8.77406
▁located	-8.77408
▁proper	-8.7761
▁average	-8.77795
▁way	-8.77868
ever	-8.78463
▁clinical	-8.78684
▁behind	-8.78684
per	-8.78754
tion	-8.78786
▁service	-8.78932
▁recogniz	-8.79006
▁limited	-8.79045
▁active	-8.79153
é	-8.79329
▁cancer	-8.79398
▁arithmetic	-8.79459
▁multiplication	-8.795
go	-8.7951
▁fully	-8.79693
▁low	-8.79741
▁11	-8.7981
▁meters	-8.8008
▁forces	-8.80252
▁unique	-8.80632
▁financial	-8.80637
▁count	-8.80672
▁ultimately	-8.80681
▁court	-8.8097
▁formula	-8.81283
▁industry	-8.8129
▁come	-8.8136
ton	-8.81618
▁situation	-8.81686
▁level	-8.81899
nswer	-8.81928
▁president	-8.81952
!	-8.81952
line	-8.82154
▁formation	-8.82201
ov	-8.82206
U	-8.82287
▁elements	-8.82568
▁effective	-8.82646
▁administrative	-8.82697
▁inter	-8.82749
▁commonly	-8.82887
▁side	-8.8304
marked	-8.8311
har	-8.83171
▁figures	-8.83212
au	-8.83259
▁La	-8.83318
▁formal	-8.83421
▁rights	-8.83549
con	-8.83596
▁near	-8.83667
▁records	-8.83741
▁short	-8.83782
▁loss	-8.83855
nt	-8.83966
ot	-8.83975
iv	-8.84023
lation	-8.84175
▁scale	-8.84192
ty	-8.84344
▁pro	-8.84416
▁working	-8.84497
▁business	-8.84514
▁materials	-8.84611
▁constant	-8.84646
▁jurisdiction	-8.84646
▁children	-8.84646
▁temperature	-8.84723
▁Le	-8.85109
▁noting	-8.85198
▁exactly	-8.85203
▁regular	-8.85331
ready	-8.85383
▁theory	-8.85406
▁rule	-8.85447
▁develop	-8.85605
ish	-8.85687
▁response	-8.85898
▁suggest	-8.85903
▁target	-8.86021
▁content	-8.86021
▁get	-8.86026
▁came	-8.86126
ron	-8.86223
ction	-8.86284
▁Y	-8.86386
▁Pa	-8.86523
▁cell	-8.86526
▁North	-8.86702
▁French	-8.86715
▁distance	-8.86719
▁activity	-8.8672
▁start	-8.86736
▁better	-8.86844
▁combined	-8.86935
▁indicat	-8.86946
▁interest	-8.87011
▁square	-8.87124
▁old	-8.8719
▁relationships	-8.87206
ence	-8.87309
▁go	-8.87375
▁British	-8.87414
▁price	-8.87421
▁connection	-8.876
▁experience	-8.87745
▁$1	-8.88086
▁De	-8.88088
▁program	-8.88088
▁severe	-8.88126
▁center	-8.8883
▁periods	-8.88911
▁reasons	-8.88964
▁land	-8.89126
▁event	-8.89184
▁symptoms	-8.89259
▁characteristics	-8.89442
▁text	-8.8945
▁material	-8.89579
▁differences	-8.89618
que	-8.8964
ship	-8.89673
bo	-8.8989
▁central	-8.90244
—	-8.90262
▁classification	-8.90265
wa	-8.90677
▁30	-8.90728
▁effectively	-8.90782
▁se	-8.90789
▁forms	-8.90813
,000	-8.90864
▁values	-8.91052
▁characteristic	-8.91092
▁components	-8.91143
time	-8.91369
▁points	-8.91374
den	-8.9168
▁five	-8.91884
▁includes	-8.92249
▁personal	-8.92349
If	-8.92432
▁World	-8.92451
▁capital	-8.92452
▁damage	-8.9251
▁mean	-8.92588
like	-8.92722
ally	-8.92776
▁America	-8.92813
▁fact	-8.93188
▁ex	-8.93204
▁issues	-8.93209
ten	-8.93264
▁percentage	-8.93388
ig	-8.93443
▁global	-8.93458
▁entire	-8.9346
▁required	-8.93781
▁ratio	-8.93879
_1">	-8.93938
▁sequence	-8.93938
hi	-8.93955
▁professional	-8.93967
▁genetic	-8.93974
▁test	-8.94083
oc	-8.94176
▁determin	-8.94453
▁anti	-8.94552
ard	-8.94645
▁knowledge	-8.9469
▁management	-8.94717
▁timeline	-8.94794
▁source	-8.95105
▁building	-8.95117
▁multi	-8.95169
ium	-8.95307
nd	-8.95427
▁community	-8.95448
K	-8.95681
▁toward	-8.95779
year	-8.95787
day	-8.96191
▁conflict	-8.96211
▁construction	-8.96238
▁published	-8.96417
▁described	-8.96435
world	-8.96588
▁served	-8.96614
▁continued	-8.96651
▁Ra	-8.96911
▁urban	-8.9698
▁eventual	-8.96989
os	-8.9702
▁South	-8.97115
ted	-8.97284
▁mechanism	-8.97388
40	-8.97397
▁appear	-8.97448
▁received	-8.97501
▁memory	-8.97756
fter	-8.97788
io	-8.97954
▁project	-8.98056
▁exist	-8.98084
▁Be	-8.98209
▁war	-8.98238
20	-8.98285
▁choice	-8.98537
▁capacity	-8.98538
▁look	-8.98541
▁authority	-8.98562
▁every	-8.98563
▁us	-8.98642
▁extend	-8.98646
▁contributions	-8.98809
ase	-8.98821
son	-8.98992
▁members	-8.99018
bi	-8.99224
▁campaign	-8.99324
▁safety	-8.99329
▁scientific	-8.99337
5%	-8.99444
▁art	-8.9955
▁late	-8.99829
▁force	-8.99992
▁regional	-9.00019
▁gain	-9.00216
▁considerations	-9.00287
▁patients	-9.00484
▁era	-9.00814
▁Additional	-9.00918
▁categories	-9.00918
▁length	-9.00918
▁view	-9.00919
▁example	-9.00921
▁versu	-9.00924
no	-9.01035
▁Ho	-9.01246
▁sp	-9.01257
▁services	-9.01414
▁culture	-9.01726
▁pain	-9.01743
▁portion	-9.01784
ster	-9.01947
▁Se	-9.01998
▁last	-9.02412
▁simple	-9.02413
▁men	-9.02456
▁either	-9.02538
▁effectiveness	-9.02567
▁cities	-9.02595
▁results	-9.02735
▁calculate	-9.03025
▁followed	-9.03038
W	-9.03222
lu	-9.03229
▁chemical	-9.03357
▁travel	-9.03357
▁possible	-9.03395
▁bone	-9.0341
gr	-9.03472
▁smaller	-9.03706
▁share	-9.03856
▁application	-9.04061
▁distinguish	-9.04184
▁extreme	-9.04184
▁home	-9.0436
ah	-9.04399
▁efficient	-9.045
ric	-9.04589
▁car	-9.047
▁Mar	-9.04814
▁definitively	-9.04971
▁contrast	-9.05017
▁birth	-9.05018
75	-9.05156
▁majority	-9.05181
ber	-9.05346
▁techniques	-9.05418
▁increased	-9.05455
▁consult	-9.05635
▁US	-9.05781
▁appropriate	-9.05857
▁election	-9.05857
▁phase	-9.05859
▁alternative	-9.05863
▁lack	-9.05884
▁want	-9.05909
▁r	-9.05937
▁processing	-9.06039
>	-9.06078
hu	-9.0614
▁ensure	-9.06494
▁sign	-9.06559
▁action	-9.06559
▁contribut	-9.06576
▁predict	-9.066
▁product	-9.06661
ral	-9.06673
▁Court	-9.06705
▁timing	-9.06706
▁held	-9.06708
▁efforts	-9.07189
▁education	-9.07303
potentially	-9.07358
▁English	-9.07559
▁calculating	-9.07559
▁definition	-9.07559
▁extensive	-9.07559
▁studies	-9.07559
▁act	-9.07879
▁40	-9.08061
▁speed	-9.08271
term	-9.08362
▁simply	-9.08422
▁Earth	-9.08422
▁network	-9.08473
▁measurement	-9.08522
▁six	-9.08523
▁volume	-9.08711
▁characteriz	-9.08764
▁face	-9.08934
▁purposes	-9.08992
▁properly	-9.09075
▁refer	-9.09082
pp	-9.09091
▁She	-9.0916
▁Europe	-9.09224
▁needs	-9.0923
▁foundation	-9.09272
▁Accord	-9.09291
▁expansion	-9.09291
▁National	-9.09311
▁longer	-9.09708
▁numerous	-9.10168
▁meaningful	-9.10188
▁critical	-9.10246
▁effect	-9.10255
▁principle	-9.10309
▁becomes	-9.10324
hy	-9.10541
▁1,	-9.10709
▁move	-9.10709
▁success	-9.10838
▁trans	-9.10862
▁provides	-9.10981
▁typical	-9.11107
50	-9.1113
▁list	-9.11146
▁claim	-9.11234
▁see	-9.11344
ological	-9.11528
▁parts	-9.11691
▁com	-9.11747
leading	-9.11805
▁subject	-9.11946
▁healthcare	-9.11946
▁assessment	-9.11984
▁contribute	-9.12098
press	-9.12105
ven	-9.12176
▁Ha	-9.12323
▁Dur	-9.1234
ub	-9.12381
▁calculations	-9.12415
lies	-9.12446
ox	-9.12784
▁problems	-9.12823
▁few	-9.12879
▁Al	-9.12901
▁sound	-9.12915
ie	-9.12947
▁Li	-9.13179
▁team	-9.13183
mit	-9.13255
▁Lo	-9.13284
▁cycle	-9.134
▁included	-9.13458
▁Z	-9.13665
▁alcohol	-9.13756
▁recognition	-9.13756
▁duration	-9.13756
▁balance	-9.13757
▁check	-9.13758
▁statistical	-9.13758
way	-9.13804
ja	-9.14122
10	-9.1435
▁feature	-9.14528
▁challenges	-9.14627
▁attempt	-9.14673
▁consistent	-9.14704
▁collection	-9.14713
▁billion	-9.14727
ward	-9.15464
▁express	-9.15505
▁tri	-9.15512
▁activities	-9.15599
▁company	-9.15599
▁serving	-9.156
▁presence	-9.15601
▁left	-9.15608
▁series	-9.15627
▁date	-9.15753
red	-9.15794
▁environmental	-9.15885
▁gene	-9.15917
▁representing	-9.15941
ile	-9.15969
▁school	-9.15984
ip	-9.16025
log	-9.16169
]	-9.1653
▁significance	-9.16534
▁another	-9.16537
▁zero	-9.16537
▁post	-9.16608
▁creates	-9.16678
▁necessary	-9.16728
▁operational	-9.16844
▁apply	-9.16919
▁concern	-9.16974
▁plant	-9.17303
▁female	-9.17477
▁structural	-9.17477
▁interpretation	-9.1754
▁greater	-9.17584
Note	-9.17671
▁step	-9.17837
▁add	-9.17992
?	-9.1843
▁explanation	-9.1843
▁decline	-9.1843
▁implementation	-9.18465
▁operation	-9.18649
fer	-9.18701
▁Con	-9.18767
▁deep	-9.18943
▁location	-9.18976
ful	-9.19046
ability	-9.19052
▁tests	-9.19101
vo	-9.19189
▁Di	-9.19214
▁May	-9.19348
▁technology	-9.19391
▁theoretical	-9.19391
▁applied	-9.19391
▁demand	-9.19392
▁beginning	-9.19393
▁France	-9.19393
▁River	-9.19407
▁[	-9.19499
ure	-9.19516
▁frequently	-9.19619
▁true	-9.1964
ex	-9.19664
▁contains	-9.19666
▁finding	-9.19679
ft	-9.19843
▁reasoning	-9.19916
▁contexts	-9.20247
pi	-9.20283
fra	-9.20289
ious	-9.20304
ze	-9.20352
▁expand	-9.20362
▁bond	-9.20364
▁receive	-9.20387
▁tradition	-9.20419
▁highest	-9.20495
ative	-9.20506
▁office	-9.20617
▁sum	-9.20713
▁give	-9.2074
za	-9.20801
▁ga	-9.20891
▁measures	-9.20912
▁muscle	-9.20988
▁principles	-9.21185
▁Ta	-9.2119
▁achieve	-9.2124
▁hand	-9.21242
▁shows	-9.21315
▁challenging	-9.21343
▁convention	-9.21343
▁literature	-9.21343
▁J	-9.21556
ea	-9.21583
$	-9.21687
gen	-9.21781
▁fall	-9.21883
▁months	-9.21966
▁mountain	-9.22333
▁products	-9.22357
ger	-9.22383
▁molecul	-9.2241
ina	-9.22596
▁media	-9.22643
▁India	-9.22734
▁gas	-9.22762
▁frequency	-9.22887
ology	-9.23252
▁Ka	-9.23325
▁marriage	-9.23333
▁say	-9.23341
30	-9.23377
▁oil	-9.23383
pr	-9.23463
▁Total	-9.23467
▁free	-9.23488
▁widely	-9.23519
▁populations	-9.23669
▁enzyme	-9.23684
▁handle	-9.23841
▁tons	-9.23882
▁half	-9.23982
▁tend	-9.24115
▁component	-9.24125
ize	-9.24165
▁reaction	-9.24175
▁remaining	-9.24192
▁outcomes	-9.24196
▁differ	-9.24294
▁popular	-9.24313
▁anatomical	-9.24343
▁University	-9.24347
▁further	-9.24367
▁establishment	-9.2447
▁connect	-9.24569
▁documented	-9.24719
▁version	-9.2472
ink	-9.24768
mor	-9.24873
▁red	-9.24906
▁German	-9.25062
▁benefit	-9.25184
▁costs	-9.25219
▁essential	-9.25225
▁efficiency	-9.25363
▁strategic	-9.25363
row	-9.25465
▁mo	-9.25477
▁II	-9.25501
mon	-9.25516
cellular	-9.25579
▁protect	-9.25597
0,000	-9.25624
▁internal	-9.25676
▁needed	-9.257
▁environment	-9.25929
port	-9.25978
▁carbon	-9.26021
pan	-9.26022
▁ma	-9.26048
cha	-9.2605
▁Chinese	-9.26394
▁commercial	-9.26394
▁blue	-9.26396
▁planning	-9.26397
▁least	-9.26399
▁something	-9.264
▁Roman	-9.26434
lying	-9.26503
▁positive	-9.26656
▁March	-9.26885
▁white	-9.27018
▁Indian	-9.27018
▁combine	-9.27106
▁book	-9.27176
cy	-9.27211
istic	-9.27412
▁play	-9.27417
▁companies	-9.27436
▁demographic	-9.27436
▁identify	-9.27436
▁importance	-9.27442
▁ground	-9.27446
▁unclear	-9.27456
▁heat	-9.27458
▁fraction	-9.27483
▁nerve	-9.27582
▁named	-9.27595
▁publication	-9.27653
▁aren	-9.27714
▁traditions	-9.27829
▁negative	-9.27833
▁Po	-9.27851
▁previous	-9.28008
yl	-9.28052
▁l	-9.28177
▁procedures	-9.28214
▁Her	-9.28248
▁account	-9.28301
▁initially	-9.28451
▁consist	-9.28464
▁examination	-9.28488
▁DNA	-9.28489
▁composition	-9.28491
▁serious	-9.28493
all	-9.28507
low	-9.28737
▁won	-9.28801
▁evolution	-9.28905
00	-9.29361
ung	-9.29418
▁detect	-9.29444
▁quantities	-9.29555
▁quantity	-9.29561
▁constitutional	-9.29587
▁protection	-9.29656
▁now	-9.29731
▁scenarios	-9.29828
han	-9.29912
▁3.	-9.29947
▁return	-9.29948
▁away	-9.30065
▁famous	-9.30628
▁legislation	-9.30628
▁writing	-9.30628
▁infection	-9.30628
▁above	-9.30629
▁black	-9.30631
▁recall	-9.30632
▁seven	-9.30645
▁heart	-9.3065
▁super	-9.30669
▁challenge	-9.30682
tan	-9.3069
▁recent	-9.30693
step	-9.30712
▁close	-9.3077
▁recommend	-9.31039
▁100	-9.31135
▁sexual	-9.31184
▁objects	-9.31247
▁died	-9.31259
▁Ne	-9.3131
cu	-9.31378
ern	-9.31435
▁industrial	-9.31714
▁maximum	-9.31714
▁communication	-9.31735
▁minutes	-9.31746
▁note	-9.31794
ou	-9.31798
▁took	-9.3182
▁ba	-9.3189
lways	-9.31944
▁par	-9.31944
ud	-9.32159
▁sea	-9.3229
▁follow	-9.32312
▁defined	-9.32476
form	-9.32546
sis	-9.32554
▁care	-9.32622
▁affected	-9.32689
ki	-9.32802
▁August	-9.32813
▁Congress	-9.32813
▁infrastructure	-9.32813
▁liquid	-9.32813
▁scope	-9.32813
▁literary	-9.32821
▁arrangement	-9.32958
▁rules	-9.33033
ave	-9.33122
-1	-9.33212
▁decades	-9.33267
▁features	-9.33543
▁break	-9.33545
▁imp	-9.33682
▁decisions	-9.33735
▁80	-9.3388
▁scholar	-9.3391
Mathematical	-9.33924
▁pregnancy	-9.33924
▁route	-9.33926
our	-9.33953
▁2020	-9.33962
▁simultaneously	-9.34031
end	-9.34198
▁mentioned	-9.34256
▁my	-9.34445
▁X	-9.34517
▁kilometers	-9.34552
▁successful	-9.34579
▁describe	-9.34761
lat	-9.34772
▁music	-9.34779
▁Sea	-9.34941
qu	-9.34972
▁combination	-9.35048
▁regulatory	-9.35048
▁Italian	-9.35049
▁river	-9.35053
▁House	-9.35058
ight	-9.35089
▁sense	-9.35091
▁Hu	-9.35293
▁implemented	-9.35376
▁seem	-9.35526
▁reduced	-9.35676
▁variables	-9.35695
ham	-9.35804
▁compounds	-9.35918
▁built	-9.36184
▁prominent	-9.36184
▁items	-9.36188
▁Western	-9.36191
▁open	-9.36267
ack	-9.36268
▁star	-9.36325
▁compare	-9.36415
▁animals	-9.36458
▁educational	-9.36542
▁completely	-9.36706
▁award	-9.36711
▁$2	-9.36753
▁island	-9.36787
▁laws	-9.36865
▁man	-9.37173
▁follows	-9.37201
ose	-9.37233
ean	-9.37242
ake	-9.37253
▁policies	-9.37334
▁eye	-9.37353
▁Pro	-9.37377
▁complications	-9.37498
▁head	-9.37501
▁benefits	-9.37536
part	-9.37573
▁students	-9.37633
▁comparing	-9.37755
▁training	-9.37905
▁procedure	-9.38014
▁score	-9.38373
▁produced	-9.38385
▁ways	-9.38388
▁leader	-9.38405
▁influenced	-9.38473
▁visual	-9.38497
▁density	-9.38497
▁reliable	-9.38497
▁avoid	-9.38498
▁enough	-9.38498
▁title	-9.38501
Key	-9.38535
▁mass	-9.38546
atic	-9.38621
▁offer	-9.38721
ick	-9.38777
▁today	-9.39383
▁Bo	-9.3959
▁increasing	-9.39673
▁Spanish	-9.39673
▁communities	-9.39673
▁exceed	-9.39674
▁convert	-9.39675
▁story	-9.39679
▁Senate	-9.39738
▁pathways	-9.39851
▁July	-9.39893
by	-9.40041
fi	-9.40081
53	-9.40241
▁h	-9.40269
▁bar	-9.40491
over	-9.40626
▁growing	-9.40667
▁equally	-9.40678
cho	-9.40682
▁recipe	-9.40864
▁Church	-9.40864
▁self	-9.40872
▁criteria	-9.40874
▁concentration	-9.40875
▁moment	-9.40895
▁measure	-9.41
▁once	-9.41046
ik	-9.41074
ade	-9.41095
ong	-9.41168
▁whole	-9.41289
78	-9.41295
▁limit	-9.41306
▁continue	-9.41331
48	-9.41527
tur	-9.41628
▁season	-9.41691
ax	-9.41761
▁consumption	-9.42068
▁hormone	-9.42068
▁identity	-9.42068
▁threshold	-9.42068
▁responsible	-9.42068
▁wrong	-9.42069
▁reduction	-9.42098
▁books	-9.42227
▁category	-9.42312
▁reduce	-9.42321
▁representation	-9.42394
▁stage	-9.42677
▁complexity	-9.427
▁Here	-9.4274
▁relate	-9.4296
▁50	-9.43147
▁Car	-9.43159
▁site	-9.43194
▁November	-9.43288
▁September	-9.43288
▁spread	-9.43288
▁skin	-9.43291
▁peak	-9.43291
▁stem	-9.43291
▁chain	-9.43294
▁ongoing	-9.43295
▁2013	-9.43313
▁transportation	-9.43346
▁24	-9.43422
ner	-9.43479
▁Ri	-9.43485
60	-9.43597
▁(1	-9.43639
cent	-9.43683
gi	-9.43746
▁young	-9.43919
▁good	-9.43937
▁patient	-9.43954
related	-9.43955
200	-9.43981
▁Man	-9.44134
her	-9.44193
▁reference	-9.44225
▁Calculate	-9.44441
▁Olympic	-9.44522
▁guidance	-9.44522
▁families	-9.44524
▁foreign	-9.44525
▁climate	-9.44526
▁daily	-9.4453
▁security	-9.44535
▁live	-9.44544
▁confusion	-9.44559
▁Da	-9.44659
▁surrounding	-9.44729
▁fish	-9.45074
nearly	-9.45078
ating	-9.45096
▁ten	-9.45133
▁medication	-9.45244
▁extended	-9.45598
▁run	-9.45643
ew	-9.45735
▁allocation	-9.45773
ational	-9.45777
▁criminal	-9.45778
▁Na	-9.45823
rt	-9.45861
▁someone	-9.4588
uc	-9.45954
▁Not	-9.45981
gar	-9.46001
▁aspects	-9.46099
ff	-9.46113
▁grow	-9.4625
▁Sun	-9.46375
▁conduct	-9.46379
we	-9.46426
▁fat	-9.46439
ug	-9.46445
▁estimate	-9.46463
▁party	-9.46479
▁City	-9.46528
▁perform	-9.46615
▁la	-9.46699
cor	-9.46703
▁places	-9.4685
pecifically	-9.46871
▁measurements	-9.46951
ries	-9.46983
▁uses	-9.47008
_	-9.47038
▁supply	-9.47038
▁Soviet	-9.47038
▁moving	-9.47039
▁discuss	-9.4704
Verification	-9.47042
▁operating	-9.4705
▁1970	-9.47067
▁protein	-9.47097
▁alone	-9.47122
ler	-9.47175
▁Ar	-9.47393
▁interactions	-9.47678
13	-9.47765
▁thinking	-9.47855
▁languages	-9.47892
▁operates	-9.47895
▁Sa	-9.48014
▁resource	-9.48094
▁naturally	-9.48121
90	-9.48158
▁Su	-9.48273
▁house	-9.48279
▁January	-9.4832
▁revenue	-9.4832
▁strategies	-9.4832
▁output	-9.48337
▁bank	-9.48374
int	-9.48393
▁San	-9.48488
▁distinctive	-9.4849
▁25	-9.48497
most	-9.4855
▁build	-9.48551
▁Com	-9.48666
▁Russian	-9.48698
▁All	-9.48761
▁previously	-9.4891
▁Per	-9.48988
▁organizations	-9.49087
▁core	-9.49203
▁Russia	-9.49238
▁cover	-9.49257
uch	-9.49274
▁pair	-9.49291
▁currently	-9.49325
▁third	-9.4933
Islamic	-9.49344
hor	-9.49506
▁air	-9.4959
ons	-9.4962
▁contemporar	-9.49621
▁grant	-9.49621
▁track	-9.49626
▁Party	-9.49629
▁schedule	-9.49632
▁computer	-9.49638
▁observation	-9.49716
▁introduced	-9.49829
▁release	-9.49898
▁interpret	-9.49917
▁learning	-9.5009
ily	-9.50197
act	-9.50202
▁Lu	-9.50221
▁lines	-9.50256
▁functional	-9.50522
▁Africa	-9.50553
▁animal	-9.5062
▁Vi	-9.50633
▁skills	-9.50841
ju	-9.50925
▁academic	-9.50935
▁budget	-9.50935
▁oxygen	-9.50935
▁domain	-9.50935
▁double	-9.50935
▁contract	-9.50937
▁solar	-9.50937
▁shape	-9.50937
▁occurring	-9.50938
▁2014	-9.50951
▁slow	-9.50978
▁percent	-9.50979
▁environments	-9.51126
▁file	-9.51198
▁seeking	-9.5137
▁Te	-9.51404
▁top	-9.51537
▁Do	-9.51617
▁increases	-9.51961
▁game	-9.52041
▁symbol	-9.52067
▁variations	-9.52174
▁standards	-9.52236
▁exhibit	-9.52268
▁phrase	-9.52268
▁quality	-9.52268
▁speech	-9.52268
▁April	-9.52268
▁York	-9.52268
▁agreement	-9.52276
▁consumer	-9.52294
▁identified	-9.52319
▁line	-9.52358
▁angle	-9.52375
▁treat	-9.52428
▁cap	-9.52433
▁Jo	-9.52484
▁tube	-9.52494
▁causes	-9.52535
▁Your	-9.52581
gent	-9.52659
▁resources	-9.52715
▁pieces	-9.52738
ular	-9.52801
▁solution	-9.52866
▁positions	-9.52929
▁week	-9.52996
▁metal	-9.53201
▁pathway	-9.53438
Total	-9.53443
▁virus	-9.53488
▁Some	-9.53502
▁assess	-9.53578
▁civil	-9.53596
▁identical	-9.5362
▁landscape	-9.5362
▁legislative	-9.5362
▁themselves	-9.5362
▁host	-9.5363
▁leadership	-9.53636
▁2010	-9.53658
▁caused	-9.53871
▁expected	-9.53894
°	-9.53929
lin	-9.53944
▁farm	-9.53963
use	-9.53974
▁thought	-9.54011
▁28	-9.54173
pro	-9.54254
▁consider	-9.54465
▁divide	-9.54467
▁Bar	-9.54816
▁holds	-9.54858
▁himself	-9.54989
▁mission	-9.54993
▁partnership	-9.54997
▁respective	-9.55006
▁bill	-9.55006
▁June	-9.55011
15	-9.55018
▁agricultural	-9.55113
▁Ex	-9.55247
▁hard	-9.5532
▁dealing	-9.55491
out	-9.55529
▁roles	-9.55543
▁detail	-9.55603
▁21	-9.55624
▁born	-9.55646
▁achieved	-9.55811
▁execut	-9.56078
▁plan	-9.56105
▁tissue	-9.56275
▁capabilities	-9.56378
▁strategy	-9.56378
▁yield	-9.56378
▁layer	-9.56381
▁paper	-9.56381
▁believ	-9.56382
▁gold	-9.56415
▁discovery	-9.5644
▁caus	-9.56495
▁becom	-9.56584
▁signal	-9.5682
▁error	-9.56871
▁direction	-9.5697
▁Mi	-9.5698
▁experienced	-9.57035
▁stages	-9.5709
▁sites	-9.57137
▁trends	-9.57207
▁call	-9.57304
▁issue	-9.5744
▁nation	-9.57629
▁equation	-9.5775
▁according	-9.57787
▁competition	-9.57787
▁implications	-9.57787
▁syndrome	-9.57787
▁therapeutic	-9.57787
▁honor	-9.57787
▁living	-9.57787
▁border	-9.57787
▁verification	-9.57788
▁turn	-9.57825
bb	-9.57871
▁height	-9.57901
▁connections	-9.57911
▁mid	-9.57911
▁saw	-9.57929
▁actions	-9.57997
▁December	-9.58009
can	-9.5806
▁Si	-9.58103
▁architectur	-9.58128
▁remainder	-9.582
▁Germany	-9.58205
▁models	-9.58552
38	-9.58557
off	-9.58727
mar	-9.59017
▁author	-9.5905
oid	-9.59139
▁Christian	-9.59184
▁pay	-9.59196
Y	-9.59206
▁Arab	-9.59209
▁President	-9.59215
▁constitute	-9.59215
▁intended	-9.59215
▁somewhat	-9.59215
▁Japan	-9.59216
▁Japanese	-9.59222
▁colonial	-9.59232
▁2016	-9.59238
▁eight	-9.59243
▁improvement	-9.59257
J	-9.59333
▁stone	-9.59338
▁gap	-9.59423
▁maintained	-9.59556
rid	-9.59573
meter	-9.596
▁others	-9.59888
nic	-9.59905
▁style	-9.59917
▁concerns	-9.59984
▁best	-9.59991
▁trees	-9.60111
▁marking	-9.60112
▁necessar	-9.60364
lit	-9.60369
▁visit	-9.60536
Alternative	-9.60665
▁February	-9.60665
▁optimal	-9.60665
▁science	-9.60665
→	-9.60665
▁drug	-9.60665
▁sometimes	-9.60669
▁conversion	-9.6067
▁biological	-9.60676
▁next	-9.60676
▁appearance	-9.60705
ier	-9.60705
▁achievement	-9.6075
▁skill	-9.60769
▁element	-9.60778
▁variation	-9.60847
▁Lake	-9.60957
▁adopted	-9.60969
▁statement	-9.61006
▁decimal	-9.61154
▁recorded	-9.6121
▁shared	-9.61253
▁du	-9.6134
▁Des	-9.61394
tive	-9.61429
▁hold	-9.61465
par	-9.61516
ix	-9.61522
tical	-9.61632
ign	-9.61903
varies	-9.61959
▁decrease	-9.62004
▁protocols	-9.62015
88	-9.62021
ana	-9.62045
▁sufficient	-9.62135
▁timeframe	-9.62135
▁flavor	-9.62136
▁spiritual	-9.62138
▁payment	-9.62194
▁transformation	-9.6221
▁dynamics	-9.6225
▁adult	-9.62363
▁John	-9.62418
mod	-9.62601
▁format	-9.62605
nce	-9.62619
lla	-9.62642
for	-9.6282
70	-9.63031
old	-9.63084
37	-9.63238
▁60	-9.63341
▁pass	-9.63344
▁Greek	-9.63628
▁perspective	-9.63628
▁2018	-9.63628
▁contact	-9.63628
▁linguistic	-9.63628
▁multiply	-9.63629
▁permanent	-9.63638
▁rise	-9.63645
▁2019	-9.63647
▁Italy	-9.63651
▁device	-9.63655
▁flight	-9.63655
▁1990	-9.63666
▁Island	-9.63668
▁charge	-9.63715
▁Union	-9.63726
rd	-9.63744
▁coup	-9.63749
▁70	-9.63824
▁intervention	-9.64064
▁bi	-9.64291
▁Ga	-9.64352
▁motor	-9.644
shi	-9.6444
95	-9.64541
▁22	-9.64573
q	-9.64704
▁domestic	-9.64738
▁bird	-9.64941
▁fast	-9.64963
▁prior	-9.65095
▁East	-9.65137
▁Catholic	-9.65143
▁algorithm	-9.65143
▁exchange	-9.65143
▁private	-9.65143
▁course	-9.65143
▁money	-9.65143
▁sector	-9.65145
▁bridge	-9.65154
▁fluid	-9.65157
▁town	-9.65177
▁programs	-9.65208
▁There	-9.65332
▁clearly	-9.6535
▁employment	-9.65412
▁matter	-9.65452
divided	-9.65555
▁meet	-9.65775
▁locations	-9.65825
▁past	-9.65864
▁highly	-9.66006
▁formed	-9.6602
▁geographic	-9.66025
▁requirement	-9.66095
▁connected	-9.66164
▁added	-9.66237
▁da	-9.66346
▁particles	-9.66349
rap	-9.66415
▁residents	-9.66418
▁contributes	-9.66452
Q	-9.66557
▁things	-9.66606
tain	-9.66654
;	-9.66681
▁immun	-9.66681
▁request	-9.66681
▁weather	-9.66682
▁taking	-9.66684
▁2015	-9.66711
▁lost	-9.66712
▁gu	-9.6683
▁discovered	-9.66835
▁expression	-9.66863
tter	-9.66882
▁requir	-9.66938
12	-9.67004
▁interact	-9.6702
▁upon	-9.67098
▁independent	-9.67148
▁code	-9.67188
▁nuclear	-9.67201
64	-9.67244
▁arm	-9.67335
fe	-9.67462
▁plants	-9.6751
▁developing	-9.67525
ult	-9.67753
▁annual	-9.6776
▁off	-9.67782
▁far	-9.67936
76	-9.67954
gan	-9.67971
▁Gu	-9.68002
85	-9.6814
▁administration	-9.68244
▁centuries	-9.68244
▁dynasty	-9.68244
▁facilities	-9.68244
▁written	-9.68244
▁1980	-9.68244
▁Regard	-9.68244
▁Suprem	-9.68244
▁slightly	-9.68244
▁analyz	-9.68244
▁income	-9.68245
▁northern	-9.6825
▁2023	-9.68261
▁span	-9.68275
▁statistics	-9.68277
▁vari	-9.68282
▁powerful	-9.68298
▁UK	-9.68315
▁By	-9.68362
▁pure	-9.68378
▁engineering	-9.68522
▁reactions	-9.68597
▁temporal	-9.68632
ual	-9.6896
▁input	-9.69044
of	-9.69056
pul	-9.69168
▁mark	-9.69229
▁Ni	-9.69428
▁prime	-9.69618
ible	-9.69659
▁port	-9.69757
^	-9.69762
▁King	-9.69773
▁gravit	-9.69831
▁England	-9.69831
▁television	-9.69831
▁instead	-9.69831
▁brand	-9.69831
▁debt	-9.69834
▁sugar	-9.69837
▁applies	-9.69841
▁demonstrated	-9.6986
▁stop	-9.6986
▁equivalent	-9.69894
▁heavi	-9.69895
▁x	-9.69924
▁secret	-9.69965
▁operate	-9.70048
iz	-9.70085
▁generate	-9.70127
▁consequences	-9.70156
▁gives	-9.70433
ich	-9.70481
▁cooking	-9.70508
▁character	-9.70543
▁manage	-9.70621
▁sequential	-9.70654
▁Mu	-9.70696
▁store	-9.70715
▁purpose	-9.7085
▁acids	-9.70894
ple	-9.7101
ria	-9.71012
▁transfer	-9.71039
▁Australia	-9.71058
▁separately	-9.71066
▁Asia	-9.71125
-19	-9.71126
▁philosoph	-9.71141
▁great	-9.7122
▁document	-9.71263
▁mono	-9.71321
▁valid	-9.71397
▁October	-9.71444
▁festival	-9.71444
▁technological	-9.71444
▁milk	-9.71456
16	-9.71459
▁basis	-9.71462
▁2012	-9.71472
▁subtraction	-9.71505
qui	-9.71508
▁usually	-9.7155
▁rare	-9.71552
▁32	-9.71609
▁Go	-9.71628
▁distributed	-9.71773
▁fl	-9.71779
▁fo	-9.71797
▁too	-9.71861
▁member	-9.72063
▁tree	-9.72083
men	-9.72092
▁evolutionar	-9.72443
84	-9.72487
▁progress	-9.72918
▁strength	-9.7299
▁Empire	-9.73083
▁breast	-9.73083
▁description	-9.73083
▁equipment	-9.73083
▁judicia	-9.73083
▁respond	-9.73083
▁fruit	-9.73083
▁afraid	-9.73084
▁therapy	-9.73095
▁resolution	-9.73098
▁parent	-9.73152
classical	-9.73159
▁cognitive	-9.73342
▁weeks	-9.73413
▁observed	-9.73478
ator	-9.73552
▁African	-9.73562
ray	-9.73623
▁International	-9.73638
▁$3	-9.7369
▁proteins	-9.7371
▁think	-9.73718
▁object	-9.73738
▁effort	-9.738
▁passed	-9.73829
▁variable	-9.73869
44	-9.74004
▁bit	-9.74005
cri	-9.74025
28	-9.7405
erg	-9.74243
25	-9.74305
▁director	-9.74428
▁govern	-9.7448
42	-9.74531
▁predictions	-9.74592
’	-9.7475
▁Approach	-9.7475
▁Canada	-9.7475
▁valuable	-9.7475
▁tourism	-9.74753
▁accounting	-9.74754
▁Given	-9.7476
▁translate	-9.74762
▁highlight	-9.74767
▁documentation	-9.7484
▁films	-9.74853
▁experiences	-9.74854
▁systematic	-9.7486
▁Ba	-9.74868
▁evolved	-9.7487
▁organ	-9.74877
2)	-9.74909
▁harm	-9.74939
3%	-9.75014
56	-9.75073
▁iron	-9.75095
▁creation	-9.75102
▁try	-9.75292
▁parties	-9.75333
▁movements	-9.75402
X	-9.75544
▁Un	-9.75659
▁dates	-9.75759
▁rapid	-9.75962
▁institutions	-9.76062
▁put	-9.76127
▁mis	-9.76229
▁degree	-9.76338
bro	-9.76352
▁accurately	-9.76365
▁favor	-9.76381
▁calcium	-9.76445
▁settlement	-9.76445
▁solid	-9.76447
▁winter	-9.76469
▁1960	-9.76492
▁radio	-9.76499
ivity	-9.76535
72	-9.76569
▁belong	-9.76651
▁completed	-9.76693
▁transform	-9.76735
bit	-9.76867
▁rich	-9.76904
▁reported	-9.76907
49	-9.77005
bal	-9.77086
▁Q	-9.77108
▁medications	-9.7717
33	-9.77203
▁exceptional	-9.77224
rac	-9.77265
▁regulation	-9.77321
▁attack	-9.77326
▁technique	-9.77341
0%	-9.77349
▁dimensions	-9.77374
▁tool	-9.77755
▁stations	-9.77772
existing	-9.77792
ists	-9.77794
ification	-9.77958
▁broad	-9.77989
ble	-9.7806
▁Pu	-9.78066
▁uncertain	-9.78153
▁attention	-9.78169
vascular	-9.7817
▁green	-9.7817
▁labor	-9.78173
▁rock	-9.78179
▁circuit	-9.7818
▁2017	-9.7819
▁reign	-9.78236
▁southern	-9.78293
▁big	-9.78351
▁logical	-9.78363
▁demonstrat	-9.78401
Co	-9.7845
63	-9.78452
ost	-9.78869
▁frameworks	-9.7896
▁warm	-9.79036
▁class	-9.7916
▁sample	-9.79181
▁idea	-9.79263
▁enter	-9.7937
▁characterize	-9.79548
inal	-9.79668
▁app	-9.79888
▁45	-9.79913
▁disorders	-9.79914
▁Jewish	-9.79923
▁destination	-9.79923
▁exposure	-9.79923
▁married	-9.79923
▁pioneer	-9.79923
▁Wrong	-9.79924
▁sorry	-9.79925
▁query	-9.79927
▁diagnostic	-9.79929
▁vast	-9.79932
▁persist	-9.79952
▁advancement	-9.79955
▁preparation	-9.79959
82	-9.79995
▁provisions	-9.80021
▁outside	-9.80052
▁remarkable	-9.80084
▁below	-9.80399
▁Ab	-9.8054
ture	-9.80558
▁falls	-9.8056
▁Fro	-9.80578
▁successfully	-9.80683
inary	-9.80711
▁proportion	-9.80934
▁globally	-9.81071
lock	-9.81179
▁careful	-9.81238
▁180	-9.81377
▁advantages	-9.81378
▁But	-9.81622
▁slave	-9.81678
▁California	-9.81709
▁clarify	-9.81709
▁continent	-9.81709
▁dominant	-9.81709
▁vehicle	-9.81709
▁2008	-9.81712
▁competitive	-9.81712
▁coefficient	-9.81713
▁bring	-9.81718
▁cold	-9.81774
▁carry	-9.81778
ji	-9.81834
▁park	-9.81848
▁linear	-9.81865
▁alter	-9.81923
▁undergo	-9.81941
lan	-9.82015
rate	-9.82112
▁musical	-9.82138
▁consulting	-9.82186
ese	-9.82222
65	-9.82293
▁cur	-9.82341
▁Medi	-9.8236
▁moved	-9.82386
▁calculated	-9.82439
▁para	-9.82496
▁ended	-9.82746
dimensional	-9.82754
▁fund	-9.82768
ept	-9.82816
▁fair	-9.8286
▁piece	-9.82903
▁characters	-9.82905
Thi	-9.83043
▁Or	-9.83055
▁arch	-9.83061
▁continuous	-9.83066
▁tools	-9.83087
▁contribution	-9.83132
▁arrangements	-9.83288
39	-9.83296
▁chi	-9.83328
ava	-9.83429
▁transport	-9.8346
α	-9.83527
▁amendment	-9.83527
▁attribut	-9.83527
▁configuration	-9.83527
▁economy	-9.83527
▁explicit	-9.83527
▁independence	-9.83527
▁minimum	-9.83527
▁storage	-9.83527
▁territories	-9.83527
▁vector	-9.83528
▁2021	-9.83547
▁gender	-9.83549
▁2011	-9.83553
▁society	-9.83558
▁formulation	-9.83575
▁accounts	-9.83608
▁Paul	-9.83609
▁ago	-9.83658
went	-9.83706
sky	-9.83734
▁trial	-9.83745
▁feet	-9.83756
▁fixed	-9.8381
▁gets	-9.83857
▁Pri	-9.83936
▁kg	-9.83945
ame	-9.83993
11	-9.84013
▁temperatures	-9.84017
▁48	-9.84059
▁Black	-9.84144
▁testing	-9.84297
▁projects	-9.844
▁performed	-9.84544
▁West	-9.84651
▁restrictions	-9.84732
51	-9.8488
▁considering	-9.8496
AT	-9.84971
car	-9.85219
▁23	-9.85289
▁accuracy	-9.85379
▁journey	-9.85379
▁museum	-9.85379
▁temple	-9.85379
▁territory	-9.85379
▁vaccine	-9.85379
▁Social	-9.8538
▁opposition	-9.8538
▁uniform	-9.8538
▁crime	-9.85381
▁appeal	-9.85381
▁2009	-9.85382
▁milestone	-9.85383
▁stay	-9.85384
▁novel	-9.85385
▁supported	-9.85437
-2	-9.85453
▁die	-9.85588
ene	-9.85591
▁molecules	-9.85625
▁solutions	-9.8576
▁designation	-9.85784
standing	-9.85831
▁male	-9.85836
▁cut	-9.85979
▁Therefore	-9.86068
▁words	-9.86077
▁bus	-9.86142
69	-9.86211
▁situations	-9.86212
▁limitations	-9.86242
▁degrees	-9.86379
▁seen	-9.86436
▁forward	-9.86489
▁continues	-9.86539
▁deposit	-9.86578
▁react	-9.86661
▁enable	-9.86668
▁meeting	-9.86686
▁student	-9.86775
▁aspect	-9.86776
▁scenario	-9.86777
▁proportional	-9.86822
▁positioning	-9.87035
▁km	-9.87097
6%	-9.87154
á	-9.87266
▁Muslim	-9.87266
▁passenger	-9.87266
▁battle	-9.87266
▁reserve	-9.87266
▁absence	-9.87266
▁Spain	-9.87267
▁giving	-9.87267
▁middle	-9.87267
▁fiber	-9.87267
▁firm	-9.87274
▁electron	-9.87311
▁lung	-9.87326
▁tasks	-9.87457
77	-9.87566
▁pH	-9.87581
ional	-9.87638
▁liver	-9.87751
▁foot	-9.87943
▁membrane	-9.87991
▁attacks	-9.88199
▁El	-9.88393
▁counting	-9.88445
rais	-9.88502
▁played	-9.8852
▁procedur	-9.88557
pur	-9.88571
▁im	-9.88638
▁35	-9.88705
▁province	-9.88747
ica	-9.88789
rich	-9.88805
work	-9.88841
▁mal	-9.8886
▁consideration	-9.88903
ef	-9.8898
ev	-9.89006
▁archaeolog	-9.89181
ā	-9.89189
▁brought	-9.89189
▁influential	-9.89189
▁manufacturing	-9.89189
▁physiological	-9.89189
▁survey	-9.89189
▁visible	-9.89189
▁Sikh	-9.89189
▁glass	-9.89189
▁Type	-9.8919
▁Great	-9.8919
▁evaluation	-9.89194
▁diverse	-9.89202
▁split	-9.89206
▁Republican	-9.89246
▁Qu	-9.89252
▁massive	-9.89282
▁upper	-9.89301
▁modul	-9.89326
▁organized	-9.89336
▁$4	-9.89365
▁concepts	-9.89374
corporate	-9.89461
aw	-9.89491
▁goal	-9.89509
▁dual	-9.89551
▁Our	-9.89607
▁reason	-9.8961
▁partial	-9.89662
▁$5	-9.89665
4%	-9.89716
▁Ja	-9.89717
▁ban	-9.8983
unt	-9.90042
▁rank	-9.90116
▁courts	-9.90141
▁En	-9.90213
▁29	-9.9026
▁funding	-9.90323
fin	-9.90328
▁(19	-9.90486
estimated	-9.90536
▁fis	-9.90591
▁Fe	-9.90662
▁align	-9.90844
▁experiment	-9.90881
▁reform	-9.90889
▁sole	-9.90957
▁extra	-9.91121
▁improve	-9.91128
_2">	-9.9115
metropolitan	-9.9115
–	-9.9115
▁Hindu	-9.9115
▁boundaries	-9.9115
▁candidate	-9.9115
▁evaluate	-9.9115
▁mathematics	-9.9115
▁committee	-9.9115
▁filter	-9.9115
▁kingdom	-9.9115
▁2006	-9.91153
▁offense	-9.91153
▁wealth	-9.91154
▁Ki	-9.91162
▁grain	-9.91173
▁translation	-9.91183
▁bodies	-9.9119
▁Du	-9.91192
▁elevation	-9.91193
▁certainty	-9.91241
gue	-9.91313
▁mental	-9.91392
▁assist	-9.91442
▁soil	-9.91535
▁substances	-9.91617
▁taxes	-9.91658
▁Gra	-9.91803
▁muscles	-9.91866
▁enhance	-9.91872
▁samples	-9.92033
▁produc	-9.92037
▁correspond	-9.92059
▁III	-9.92236
▁Mos	-9.92273
▁fine	-9.92374
▁teams	-9.92575
▁join	-9.92741
▁topic	-9.9284
▁receiv	-9.92859
▁humans	-9.92907
▁met	-9.92916
▁Washington	-9.9315
▁phenomenon	-9.9315
▁physics	-9.9315
▁variety	-9.9315
▁royal	-9.9315
▁immigration	-9.9315
▁extent	-9.93152
▁handling	-9.93152
▁voting	-9.93153
▁breakdown	-9.93155
▁diplomatic	-9.93155
▁composed	-9.93155
▁sentence	-9.93157
▁failure	-9.93158
,500	-9.93163
▁governance	-9.93176
▁migration	-9.9318
▁variant	-9.93188
▁computational	-9.93223
▁setting	-9.93234
▁2000	-9.93234
▁poly	-9.93275
▁secondary	-9.93278
▁progression	-9.93283
▁plays	-9.93434
room	-9.93468
▁absolutely	-9.93576
2%	-9.93806
▁foundational	-9.93826
pit	-9.93839
▁tru	-9.93989
▁receives	-9.94057
▁CE	-9.94074
clu	-9.94261
▁taken	-9.94397
In	-9.94439
last	-9.94441
▁**1	-9.94562
unit	-9.94591
22	-9.94794
▁changed	-9.94916
▁branch	-9.95059
.25	-9.95075
▁custom	-9.9514
▁preced	-9.95159
▁assumption	-9.95191
▁defense	-9.95191
▁kidney	-9.95191
▁terminology	-9.95191
▁belief	-9.95191
▁superior	-9.95191
▁opposite	-9.95199
▁resistance	-9.95208
▁tenure	-9.95215
▁innovation	-9.95219
▁stable	-9.95232
▁adaptation	-9.95253
▁salt	-9.95312
▁artistic	-9.95362
▁survival	-9.95375
▁detection	-9.95401
▁summer	-9.9558
81	-9.95704
▁released	-9.95717
▁relevant	-9.95792
▁classifi	-9.9585
fold	-9.9586
uni	-9.95906
▁gun	-9.96012
ley	-9.96021
▁geographical	-9.9607
▁front	-9.96166
ext	-9.96182
▁Har	-9.96404
etic	-9.96477
▁here	-9.96836
▁claims	-9.96864
dependent	-9.96956
▁threat	-9.97266
making	-9.97272
▁elector	-9.97274
▁exercise	-9.97274
▁metabolic	-9.97274
▁possess	-9.97274
▁review	-9.97274
▁walk	-9.97275
▁Henry	-9.97275
▁approved	-9.97276
changing	-9.97277
▁barrier	-9.97277
▁especial	-9.97279
▁Latin	-9.9728
▁interval	-9.97289
▁Br	-9.97293
▁airport	-9.97297
▁motion	-9.97309
▁reflected	-9.97323
▁gland	-9.97369
▁argu	-9.97392
▁provider	-9.97408
▁90	-9.97416
▁Par	-9.9742
rmal	-9.97469
▁quickly	-9.97493
▁institutional	-9.97507
gro	-9.97512
▁net	-9.97574
▁race	-9.97637
driven	-9.97643
66	-9.97654
94	-9.97804
600	-9.9791
▁preferences	-9.97962
▁fire	-9.97989
▁comparisons	-9.98047
▁General	-9.98077
▁suitable	-9.98101
sure	-9.98116
▁On	-9.98306
omy	-9.98405
▁conducted	-9.98414
▁ranking	-9.98415
ogen	-9.98494
19	-9.98502
▁treatments	-9.98517
▁At	-9.98537
68	-9.98558
▁train	-9.98788
▁geolog	-9.98948
rib	-9.98988
▁amounts	-9.99
▁Korea	-9.99018
▁sell	-9.9905
▁digit	-9.99061
▁micro	-9.9907
▁lived	-9.99125
mitted	-9.992
▁integrat	-9.99292
▁initiat	-9.99352
&	-9.99402
▁Follow	-9.99402
▁astronom	-9.99402
▁matrix	-9.99402
▁traffic	-9.99402
▁violence	-9.99402
▁municipal	-9.99402
▁severity	-9.99402
▁fuel	-9.99402
▁injury	-9.99402
▁delay	-9.99403
▁adjust	-9.99403
▁tumor	-9.99404
▁2007	-9.99404
▁debate	-9.99406
▁stability	-9.99408
▁eastern	-9.9941
▁western	-9.9941
▁disorder	-9.99413
▁package	-9.99416
▁update	-9.99451
▁equations	-9.99457
▁adoption	-9.99474
▁nations	-9.99482
▁wall	-9.99487
▁boxes	-9.9953
▁Bi	-9.99541
97	-9.99553
▁edge	-9.99594
▁cub	-9.99602
▁mother	-9.99665
▁advanced	-9.99836
▁fet	-9.99844
gh	-9.99881
hour	-9.99882
▁spann	-9.99938
▁older	-9.99982
▁summ	-10.0002
fatty	-10.0002
▁happened	-10.0006
▁ice	-10.0008
▁dispute	-10.0012
ä	-10.002
▁faced	-10.0023
▁lives	-10.0035
▁controlled	-10.0046
▁former	-10.0078
▁documents	-10.0079
refore	-10.0089
roughly	-10.0089
7%	-10.0095
▁reports	-10.0095
lia	-10.0099
▁BC	-10.0123
ini	-10.0129
14	-10.0139
terior	-10.0145
▁inhibit	-10.0147
val	-10.0152
▁box	-10.0153
ilk	-10.0154
nterestingly	-10.0155
98	-10.0155
▁Council	-10.0158
▁Democratic	-10.0158
▁Mexico	-10.0158
▁William	-10.0158
▁experiencing	-10.0158
▁screen	-10.0158
▁peace	-10.0158
▁guidelines	-10.0158
▁said	-10.0158
▁dark	-10.0158
▁instance	-10.0158
▁2005	-10.0158
▁mixture	-10.0158
▁transmission	-10.0159
▁verify	-10.0159
▁31	-10.0159
▁2022	-10.016
▁export	-10.016
▁radiation	-10.0161
▁parameters	-10.0161
▁district	-10.0167
▁dry	-10.0167
Calculate	-10.0172
▁adequately	-10.0174
▁mari	-10.0176
▁meat	-10.018
verage	-10.0185
▁dish	-10.0186
zi	-10.0187
▁ingredients	-10.019
▁removed	-10.0201
▁nu	-10.0225
▁addressed	-10.0247
ili	-10.0251
▁table	-10.0258
▁thing	-10.0289
roll	-10.0294
36	-10.03
▁options	-10.0309
▁accept	-10.0309
oth	-10.0318
▁happen	-10.0329
17	-10.0341
▁continu	-10.0348
▁union	-10.0355
mbo	-10.0369
▁weapons	-10.0372
▁colon	-10.0375
metric	-10.0377
▁disappear	-10.038
▁driving	-10.038
▁earliest	-10.038
▁random	-10.038
▁sulfur	-10.038
▁victory	-10.038
▁worldwide	-10.038
▁sleep	-10.038
▁police	-10.038
▁depth	-10.038
▁centers	-10.0381
acy	-10.0381
▁separation	-10.0382
▁authorities	-10.0382
▁spot	-10.0385
▁argument	-10.0386
▁cast	-10.0387
▁sensory	-10.0389
▁confidently	-10.039
▁plus	-10.0394
▁UN	-10.0397
▁wave	-10.0404
▁involvement	-10.0406
which	-10.0407
▁focuse	-10.0408
▁wind	-10.0408
▁Ph	-10.0413
▁responses	-10.0421
▁Pi	-10.0424
ency	-10.0424
▁prediction	-10.043
▁goals	-10.0431
▁sport	-10.0439
▁mixed	-10.0444
▁song	-10.0445
breaking	-10.0456
+	-10.0462
pat	-10.0466
▁One	-10.0468
▁sections	-10.0494
▁king	-10.0512
▁soldiers	-10.0517
▁recommended	-10.052
▁differently	-10.052
▁illustrate	-10.0528
RI	-10.0535
ara	-10.0537
▁Rh	-10.0543
▁mention	-10.055
▁estimat	-10.0553
▁drive	-10.0555
0°	-10.0555
▁absolute	-10.0559
5,000	-10.0567
▁|	-10.0578
▁appeared	-10.0578
▁Dr	-10.0578
itu	-10.0591
▁inside	-10.0597
▁again	-10.0601
rain	-10.0605
▁Constitution	-10.0607
▁cloud	-10.0607
▁combining	-10.0607
▁deficit	-10.0607
▁investment	-10.0607
▁wavelength	-10.0607
▁George	-10.0607
▁fossil	-10.0607
▁prison	-10.0607
▁2024	-10.0607
▁wife	-10.0607
▁bread	-10.0607
▁vision	-10.0607
▁display	-10.0608
▁scaling	-10.0608
▁commitment	-10.0609
▁manag	-10.061
▁proceedings	-10.061
▁representative	-10.0612
▁texture	-10.0613
▁Park	-10.0617
▁concentrated	-10.062
▁errors	-10.0624
▁reasonable	-10.0624
▁artist	-10.0627
▁emerged	-10.0629
▁faster	-10.0635
▁outcome	-10.064
▁symbolic	-10.0642
▁block	-10.0642
established	-10.0645
▁researchers	-10.0646
▁joint	-10.0654
agon	-10.0671
head	-10.0671
well	-10.0677
▁recognize	-10.0679
▁workers	-10.0693
▁reading	-10.0704
IS	-10.0708
▁nam	-10.0713
▁goods	-10.0716
▁regulations	-10.0721
▁equals	-10.0726
▁hydrogen	-10.0727
▁clean	-10.0732
▁round	-10.0739
▁Bay	-10.0745
▁Problem	-10.0747
uz	-10.0763
▁implement	-10.0763
AP	-10.0764
▁promote	-10.0769
▁architecture	-10.0783
▁With	-10.0784
▁36	-10.0797
ender	-10.0805
▁politic	-10.0809
dynamic	-10.0821
▁constraints	-10.0832
▁Republic	-10.0833
▁London	-10.084
▁correlation	-10.084
▁eggs	-10.084
▁incident	-10.084
▁measuring	-10.084
▁Central	-10.084
▁GDP	-10.084
▁profile	-10.084
▁religion	-10.084
▁strict	-10.084
▁freedom	-10.084
▁modification	-10.084
▁draw	-10.084
▁First	-10.084
▁plate	-10.084
▁job	-10.084
▁2004	-10.084
▁proposed	-10.084
▁systematically	-10.0842
▁protections	-10.0842
▁native	-10.0844
▁coverage	-10.0847
▁selection	-10.0847
▁plane	-10.085
▁litt	-10.0852
▁personality	-10.0855
▁partner	-10.086
▁hour	-10.0865
▁cool	-10.0866
▁emotional	-10.0875
▁advantage	-10.0883
▁immediately	-10.0884
▁hot	-10.09
▁Award	-10.0901
▁Gi	-10.0906
▁coin	-10.0911
▁independently	-10.0913
bar	-10.0922
▁actor	-10.0925
long	-10.0937
▁script	-10.0955
▁cul	-10.0962
▁cru	-10.0965
▁cat	-10.0965
57	-10.0969
avi	-10.097
▁God	-10.0971
▁der	-10.0985
▁su	-10.0998
cation	-10.0999
▁mix	-10.1012
▁AD	-10.1016
▁offers	-10.1028
▁engine	-10.1029
▁matters	-10.1031
▁board	-10.1036
berg	-10.105
tone	-10.1051
▁match	-10.1065
▁55	-10.1067
▁declar	-10.1069
▁texts	-10.107
▁minor	-10.1073
34	-10.1073
▁noted	-10.1074
▁Shi	-10.1074
▁showing	-10.1075
▁rest	-10.1077
▁dramatic	-10.1077
▁Amendment	-10.1078
▁Canadian	-10.1078
▁circle	-10.1078
▁commission	-10.1078
▁ethnic	-10.1078
▁numerical	-10.1078
▁obligation	-10.1078
▁Trump	-10.1078
▁unusual	-10.1078
▁message	-10.1078
▁teaching	-10.1078
▁arrest	-10.1078
▁repair	-10.1078
▁grand	-10.1078
▁notably	-10.1078
▁electrical	-10.1079
▁opportunities	-10.108
▁Northern	-10.1081
▁Paris	-10.1083
▁generation	-10.1087
▁stress	-10.1089
▁useful	-10.109
▁sales	-10.1093
▁recovery	-10.1094
▁nine	-10.1094
▁occupation	-10.1097
▁26	-10.1101
▁institution	-10.1105
▁adding	-10.1107
23	-10.1126
▁planet	-10.1126
▁cave	-10.1127
▁root	-10.1132
21	-10.1133
▁versions	-10.1134
▁compound	-10.1134
▁station	-10.1139
▁nor	-10.1143
▁structured	-10.1145
▁ball	-10.115
▁seasonal	-10.1157
▁coordinate	-10.1193
▁flows	-10.1206
▁exception	-10.1215
▁marketing	-10.1216
▁prop	-10.1233
ified	-10.1236
PA	-10.1239
▁steps	-10.1241
▁Th	-10.1245
▁obtain	-10.1253
produc	-10.1257
▁Tri	-10.1267
▁motivations	-10.128
▁reduc	-10.1288
▁sets	-10.1289
▁miles	-10.1291
▁coast	-10.1295
▁150	-10.1303
▁offering	-10.1305
▁encompass	-10.1308
▁restrict	-10.131
92	-10.132
ranging	-10.132
▁child	-10.1321
▁neighbor	-10.1321
í	-10.1322
▁Portuguese	-10.1322
▁Research	-10.1322
▁Security	-10.1322
▁anxiety	-10.1322
▁background	-10.1322
▁confidence	-10.1322
▁dominance	-10.1322
▁newspaper	-10.1322
▁platform	-10.1322
▁universal	-10.1322
▁reputation	-10.1322
▁High	-10.1322
▁housing	-10.1322
▁steel	-10.1322
▁hamster	-10.1322
▁ruling	-10.1322
▁voice	-10.1322
▁dedicat	-10.1322
▁intense	-10.1322
▁2001	-10.1322
▁imperial	-10.1322
▁conclusion	-10.1323
▁Saint	-10.1323
▁ser	-10.1326
▁collective	-10.1327
▁methodology	-10.1328
▁usage	-10.1331
▁removal	-10.1331
ient	-10.1333
▁crate	-10.1333
▁$8	-10.1336
war	-10.134
▁classes	-10.1341
%	-10.135
▁interests	-10.135
▁win	-10.1351
▁acts	-10.1354
▁feed	-10.1359
▁games	-10.1373
▁binding	-10.1379
ino	-10.138
▁sex	-10.1381
ute	-10.1389
▁shorter	-10.1389
uk	-10.1407
1%	-10.1425
▁bio	-10.1454
osis	-10.1454
▁hole	-10.146
▁cook	-10.147
▁keep	-10.1478
▁report	-10.1481
umb	-10.1483
▁vessels	-10.1484
32	-10.149
▁1/	-10.1492
▁publish	-10.1504
▁Fi	-10.1504
▁son	-10.151
▁stand	-10.1548
▁sports	-10.155
▁happens	-10.1552
▁collect	-10.1555
▁origin	-10.1556
▁networks	-10.1557
▁teache	-10.156
▁Ru	-10.1564
▁neuro	-10.1569
▁census	-10.1572
▁explore	-10.1572
▁specify	-10.1572
▁synthesis	-10.1572
▁trigger	-10.1572
stimulat	-10.1572
▁wrote	-10.1572
▁Justice	-10.1572
▁Israel	-10.1572
▁inherent	-10.1572
▁ocean	-10.1572
▁pricing	-10.1572
▁violat	-10.1572
▁pages	-10.1573
▁rail	-10.1573
▁medal	-10.1574
▁moral	-10.1578
▁assume	-10.1579
lf	-10.1579
▁bias	-10.1579
▁1950	-10.1581
▁Even	-10.1587
▁tissues	-10.159
▁plans	-10.1591
▁orbit	-10.1591
cular	-10.1592
active	-10.1633
▁compet	-10.1638
▁tr	-10.1638
▁measured	-10.1642
▁correctly	-10.1649
▁instrument	-10.1651
▁option	-10.1663
water	-10.167
lam	-10.1673
type	-10.1673
▁scientist	-10.1678
▁Day	-10.1685
▁27	-10.1686
ette	-10.1694
▁ruled	-10.1695
▁managed	-10.17
ook	-10.17
som	-10.1716
▁schools	-10.1722
▁(4	-10.1725
▁resist	-10.1726
▁Ju	-10.173
omer	-10.1737
▁canal	-10.1749
fair	-10.1752
▁notice	-10.1761
▁wide	-10.1777
▁immediate	-10.178
▁stands	-10.1782
put	-10.1794
▁deliver	-10.1798
▁safe	-10.1814
▁Egypt	-10.1824
hood	-10.1828
polar	-10.1828
ö	-10.1828
▁availability	-10.1828
▁diversity	-10.1828
▁forecast	-10.1828
▁instruction	-10.1828
▁monument	-10.1828
▁receptor	-10.1828
▁trajectory	-10.1828
▁twice	-10.1828
▁widespread	-10.1828
▁enforcement	-10.1828
▁replacement	-10.1828
▁Iraq	-10.1828
▁defeat	-10.1828
▁decay	-10.1828
▁geometric	-10.1828
▁aircraft	-10.1829
▁tension	-10.1829
▁letter	-10.183
▁proof	-10.1831
▁breed	-10.1832
▁passage	-10.1832
▁existence	-10.1833
▁regime	-10.1836
▁hair	-10.1838
▁north	-10.1839
▁read	-10.1841
▁Book	-10.1842
▁poet	-10.1855
▁confirmed	-10.1858
▁node	-10.1858
▁elevated	-10.1864
▁purchase	-10.1865
▁Ku	-10.1868
ani	-10.1873
▁association	-10.1883
▁fit	-10.1885
▁employed	-10.1888
▁fur	-10.1891
▁counter	-10.1897
1)	-10.1898
▁acting	-10.1902
▁spen	-10.1913
▁lasting	-10.1915
`	-10.1921
▁month	-10.1926
▁Pol	-10.1941
lig	-10.1945
▁achiev	-10.1946
▁exists	-10.1949
▁shaped	-10.1974
osa	-10.1976
8%	-10.1977
▁Je	-10.1984
▁feel	-10.1993
▁instruments	-10.2008
▁origins	-10.2011
2.5	-10.2016
▁medi	-10.2019
izing	-10.2025
▁islands	-10.2035
▁covering	-10.2044
▁charges	-10.2047
▁blocks	-10.2056
")	-10.2072
▁bacteria	-10.208
electric	-10.2089
▁started	-10.2089
thyroid	-10.2091
▁Thomas	-10.2091
▁chromosome	-10.2091
▁frequencies	-10.2091
▁outbreak	-10.2091
▁psychological	-10.2091
▁suicide	-10.2091
▁surgical	-10.2091
▁Kingdom	-10.2091
▁respirat	-10.2091
▁cluster	-10.2091
▁protest	-10.2091
easier	-10.2091
▁sharp	-10.2091
▁artery	-10.2091
▁legacy	-10.2091
▁Time	-10.2092
▁attach	-10.2092
▁temporary	-10.2092
▁external	-10.2092
▁appointment	-10.2092
▁criticism	-10.2093
▁inspir	-10.2093
▁precedent	-10.2096
▁Ko	-10.2098
▁seat	-10.2111
▁nest	-10.2115
▁specifications	-10.2119
▁rec	-10.2119
▁divid	-10.2121
cer	-10.2122
elected	-10.2122
▁Pre	-10.213
▁digital	-10.2134
bat	-10.2134
▁ruler	-10.2139
▁aligns	-10.214
.00	-10.214
▁operated	-10.2148
outhern	-10.2161
▁stronger	-10.2173
▁$7	-10.2174
ü	-10.2187
▁define	-10.2201
▁trend	-10.2202
teen	-10.2205
▁(2	-10.221
▁west	-10.2224
▁State	-10.2225
▁expenses	-10.2231
kan	-10.224
right	-10.2264
▁link	-10.227
▁fail	-10.2292
ough	-10.2315
▁34	-10.2316
▁adults	-10.2321
▁soft	-10.2329
cin	-10.2332
CD	-10.2345
▁190	-10.2345
▁map	-10.2348
arian	-10.2348
▁celebrat	-10.235
▁hospital	-10.2359
lice	-10.2359
▁attend	-10.236
▁leads	-10.2361
▁Buddhist	-10.2361
▁Instead	-10.2361
▁Tokyo	-10.2361
▁absorb	-10.2361
▁approval	-10.2361
▁conservation	-10.2361
▁departure	-10.2361
▁parliament	-10.2361
▁territorial	-10.2361
▁Britain	-10.2361
▁Company	-10.2361
▁champion	-10.2361
▁episode	-10.2361
▁reliability	-10.2361
▁ritual	-10.2361
▁fresh	-10.2362
definitely	-10.2362
▁print	-10.2362
▁spending	-10.2362
▁photo	-10.2362
▁kind	-10.2362
▁justice	-10.2363
▁road	-10.2364
▁defendant	-10.2364
dra	-10.2365
▁accessible	-10.2366
▁hub	-10.2366
▁coordination	-10.2368
▁reverse	-10.2368
▁binary	-10.2369
▁objective	-10.2371
▁extract	-10.2374
▁integration	-10.2375
ature	-10.2379
▁governor	-10.2393
▁wood	-10.2394
▁marine	-10.24
▁Korean	-10.2411
▁philosophy	-10.2413
▁dead	-10.2414
▁army	-10.2415
▁historically	-10.2426
▁reaches	-10.2439
ue	-10.2439
▁leav	-10.244
▁guide	-10.2442
▁annually	-10.2446
▁aid	-10.2454
▁via	-10.2457
bor	-10.2459
4)	-10.2463
▁east	-10.2465
▁Min	-10.2465
▁(3	-10.2486
class	-10.2488
largest	-10.2491
▁begin	-10.2509
▁interesting	-10.251
script	-10.2513
▁begins	-10.2514
▁emphasize	-10.2519
▁profit	-10.2529
▁resolve	-10.254
▁fight	-10.2541
▁Sch	-10.2557
▁habitat	-10.2559
▁gri	-10.2561
tude	-10.2562
▁ring	-10.2587
SA	-10.2589
▁visitors	-10.2596
cus	-10.26
▁command	-10.2602
▁coat	-10.2605
wr	-10.2611
▁waves	-10.2615
round	-10.2617
ubli	-10.262
62	-10.2624
▁church	-10.2626
▁districts	-10.2627
gram	-10.2636
▁defend	-10.2636
▁Singapore	-10.2639
▁daughter	-10.2639
▁drink	-10.2639
▁empire	-10.2639
▁intermediate	-10.2639
▁metabolism	-10.2639
▁perception	-10.2639
▁victim	-10.2639
▁Federal	-10.2639
▁1986	-10.2639
▁`[	-10.2639
▁defect	-10.2639
▁vital	-10.2639
▁Region	-10.2639
▁precision	-10.2639
▁liability	-10.264
▁genus	-10.264
▁amino	-10.264
▁dangerous	-10.264
▁tank	-10.264
]`	-10.264
▁combat	-10.264
▁sister	-10.264
▁Under	-10.2642
▁pigment	-10.2642
▁night	-10.2643
▁Syria	-10.2643
▁circulation	-10.2647
▁lake	-10.2648
▁progressive	-10.2649
▁Art	-10.265
▁nuanced	-10.2652
▁popularity	-10.2652
▁wage	-10.2654
▁matches	-10.2655
▁metrics	-10.2662
▁touche	-10.2664
▁experimental	-10.2678
▁gradually	-10.268
31	-10.269
▁reforms	-10.269
▁dissolve	-10.2698
▁hunting	-10.2702
▁monitoring	-10.2711
▁defin	-10.2713
▁White	-10.2714
▁accepted	-10.2726
ori	-10.2763
-3	-10.2765
▁ending	-10.2775
▁machine	-10.2778
▁Bu	-10.2782
▁section	-10.2786
arch	-10.2786
point	-10.2792
▁β	-10.2798
▁father	-10.28
▁interaction	-10.2801
▁pen	-10.2807
more	-10.2823
onic	-10.2841
▁adapt	-10.2846
▁burn	-10.285
▁roots	-10.2861
▁revolutionar	-10.2867
▁magnet	-10.2881
▁hyper	-10.2891
▁opera	-10.2909
▁situat	-10.2914
▁subtract	-10.2914
proved	-10.2916
▁bl	-10.2923
fusion	-10.2924
▁congress	-10.2925
phosphate	-10.2925
ō	-10.2925
ω	-10.2925
▁accommodate	-10.2925
▁chamber	-10.2925
▁facility	-10.2925
▁faith	-10.2925
▁mechanical	-10.2925
▁parallel	-10.2925
▁penalty	-10.2925
▁varieties	-10.2925
▁broadcast	-10.2925
▁compromise	-10.2925
▁credit	-10.2925
▁doctor	-10.2925
▁studied	-10.2925
▁university	-10.2925
▁1999	-10.2925
▁depression	-10.2925
▁Civil	-10.2925
▁woman	-10.2925
▁ethical	-10.2925
▁margin	-10.2925
▁pepper	-10.2925
▁examining	-10.2925
▁fraud	-10.2925
▁vertical	-10.2925
▁James	-10.2925
▁mineral	-10.2925
▁planned	-10.2926
▁thick	-10.2926
▁prevalence	-10.2926
▁neurolog	-10.2927
▁Guru	-10.2931
▁investigation	-10.2932
▁participation	-10.2934
▁1930	-10.2935
erial	-10.2939
ural	-10.295
signed	-10.2957
▁$9	-10.296
▁sold	-10.2962
though	-10.2968
▁Path	-10.2979
-20	-10.2984
born	-10.2989
▁eliminate	-10.3002
amine	-10.3003
▁compar	-10.3005
jo	-10.3007
▁hundred	-10.3011
▁advers	-10.3017
RE	-10.3031
ware	-10.3049
▁closely	-10.3055
▁dog	-10.3055
▁surviv	-10.306
▁card	-10.3061
▁corresponding	-10.3081
▁Tu	-10.3089
▁Wil	-10.309
▁limitation	-10.3104
▁learn	-10.3112
▁rely	-10.3113
▁forming	-10.313
▁mammals	-10.313
▁employ	-10.3144
itis	-10.3166
▁perfect	-10.317
▁existed	-10.3179
▁fishing	-10.318
▁projections	-10.3197
▁1:	-10.3201
▁batch	-10.3206
▁attract	-10.3208
mate	-10.3211
}	-10.3219
shadow	-10.3219
▁People	-10.3219
▁audience	-10.3219
▁extension	-10.3219
▁impossible	-10.3219
▁struggle	-10.3219
▁ultrasound	-10.3219
▁understood	-10.3219
▁Nixon	-10.3219
▁modified	-10.3219
▁integer	-10.3219
▁movie	-10.3219
▁patent	-10.3219
▁advis	-10.3219
▁lymph	-10.3219
▁moderate	-10.322
▁camp	-10.322
▁organizing	-10.322
▁axis	-10.322
▁neck	-10.322
▁entry	-10.322
▁probabilit	-10.3221
▁collaboration	-10.3223
▁poor	-10.3223
▁mutations	-10.3224
▁discrimination	-10.3224
▁proton	-10.3226
▁equi	-10.3229
▁dance	-10.3231
▁agents	-10.3233
▁household	-10.3233
▁Gold	-10.3234
9%	-10.3235
▁grams	-10.3239
▁chosen	-10.3243
▁desired	-10.3249
▁ideal	-10.3249
▁orbital	-10.3251
life	-10.3255
▁regulate	-10.3257
▁magn	-10.3265
ID	-10.3267
▁incorporated	-10.3274
▁provinces	-10.3287
▁0.1	-10.3289
▁zones	-10.3291
▁scor	-10.3293
▁runs	-10.3312
▁dose	-10.3314
▁stated	-10.3325
keeping	-10.3331
▁males	-10.3332
▁Pat	-10.3363
▁decade	-10.3397
level	-10.34
▁tall	-10.3411
▁`	-10.3411
▁replac	-10.3414
▁readi	-10.3419
aga	-10.3448
▁Cap	-10.3451
dar	-10.3453
bre	-10.3466
▁emotion	-10.3476
not	-10.3492
▁Sam	-10.3497
▁stock	-10.3497
▁sun	-10.3513
▁reproducti	-10.3516
▁Christ	-10.3518
▁commut	-10.3521
▁categoriz	-10.3522
à	-10.3522
▁Commission	-10.3522
▁conviction	-10.3522
▁landmark	-10.3522
▁library	-10.3522
▁narrative	-10.3522
▁presidency	-10.3522
▁spectrum	-10.3522
▁department	-10.3522
▁graph	-10.3522
▁proposal	-10.3522
▁insurance	-10.3522
▁ownership	-10.3522
▁wound	-10.3522
▁1974	-10.3522
▁poem	-10.3522
▁accident	-10.3522
▁reveal	-10.3522
Group	-10.3523
▁2002	-10.3523
▁Center	-10.3523
▁railway	-10.3523
▁edition	-10.3523
▁Prize	-10.3524
▁load	-10.3524
▁friend	-10.3525
plain	-10.3526
▁preservation	-10.3528
▁unknown	-10.3529
▁tourist	-10.353
▁stream	-10.3531
26	-10.3531
▁Port	-10.3533
▁celebration	-10.3534
▁trace	-10.3535
▁examine	-10.3538
▁(5	-10.354
▁lowest	-10.3543
▁weak	-10.3543
▁dense	-10.3553
▁thousands	-10.3555
▁beta	-10.3564
▁images	-10.3569
Re	-10.3569
▁incomplete	-10.3575
sensitivity	-10.358
▁Ali	-10.3583
▁deal	-10.3586
Fa	-10.3591
▁ear	-10.3592
▁nucleus	-10.3598
▁rapidly	-10.361
crete	-10.3619
▁semi	-10.3631
▁300	-10.3668
▁cla	-10.367
ula	-10.3675
state	-10.3676
▁featur	-10.3677
▁machines	-10.3681
▁classic	-10.3685
▁Va	-10.3688
▁facilitate	-10.3696
▁organisms	-10.3698
east	-10.3717
verse	-10.3719
lip	-10.3721
▁construct	-10.3755
light	-10.3762
▁mind	-10.3765
▁rational	-10.3777
ifying	-10.3782
Sha	-10.3788
aba	-10.3808
▁prohibit	-10.3823
▁initiatives	-10.3826
commun	-10.3834
▁wild	-10.3834
▁announc	-10.3835
▁commemorat	-10.3835
ó	-10.3835
▁Brazil	-10.3835
▁Ethiopia	-10.3835
▁acquisition	-10.3835
▁brief	-10.3835
▁chronological	-10.3835
▁collapse	-10.3835
▁copyright	-10.3835
▁describing	-10.3835
▁minimal	-10.3835
▁specified	-10.3835
▁Charles	-10.3835
▁easily	-10.3835
▁stories	-10.3835
▁imaging	-10.3835
▁article	-10.3835
▁killed	-10.3835
▁behave	-10.3835
▁logistic	-10.3835
▁0.0	-10.3835
▁pardon	-10.3835
▁software	-10.3835
▁Peter	-10.3835
▁chemistry	-10.3835
▁preferred	-10.3836
▁acute	-10.3836
▁renam	-10.3836
▁diagnosis	-10.3836
▁harmful	-10.3837
▁sacks	-10.3837
▁attendance	-10.3837
▁dietary	-10.3837
▁2025	-10.384
▁switch	-10.3841
▁buy	-10.3842
▁completion	-10.3842
▁Rock	-10.3845
▁writer	-10.3845
▁curve	-10.3845
3)	-10.3858
▁carried	-10.386
▁clot	-10.3865
▁moon	-10.388
vice	-10.3881
▁System	-10.3899
▁cup	-10.3899
▁breathing	-10.3905
▁players	-10.3911
▁failed	-10.3915
▁Asian	-10.3922
▁$6	-10.3929
▁46	-10.3931
speaking	-10.3933
▁fighting	-10.3957
▁leaves	-10.3959
▁sand	-10.3961
hand	-10.3963
0)	-10.3983
▁Law	-10.3985
gel	-10.3986
▁leave	-10.3992
▁mm	-10.4026
▁IV	-10.4037
▁returned	-10.4037
nning	-10.4048
▁preference	-10.4054
▁developmental	-10.4067
flow	-10.4068
▁horses	-10.4076
▁adopt	-10.4078
▁seek	-10.4081
▁encounter	-10.4088
duction	-10.4103
▁normally	-10.4106
▁utiliz	-10.4134
▁engage	-10.414
▁disrupt	-10.4146
▁activat	-10.4146
▁Vietnam	-10.4157
▁predominant	-10.4157
▁Committee	-10.4157
▁accelerat	-10.4157
▁calendar	-10.4157
▁ceremony	-10.4157
▁chapter	-10.4157
▁integrity	-10.4157
▁intricate	-10.4157
▁optimization	-10.4157
▁polynomial	-10.4157
▁restaurant	-10.4157
▁supplie	-10.4157
▁Liberal	-10.4157
▁apparent	-10.4157
▁narrow	-10.4157
▁posterior	-10.4157
▁rainfall	-10.4157
▁video	-10.4157
▁limb	-10.4157
▁mouth	-10.4157
▁bibli	-10.4157
▁sodium	-10.4157
▁Siberia	-10.4157
▁Airport	-10.4157
▁naval	-10.4157
▁viral	-10.4158
▁cardio	-10.4159
▁index	-10.4159
▁arise	-10.4159
▁frame	-10.4159
▁neurons	-10.4159
▁tail	-10.416
▁baby	-10.416
▁qualifi	-10.4161
▁bright	-10.4161
▁coming	-10.4162
▁1972	-10.4163
▁1963	-10.4164
▁customers	-10.4165
▁Arabian	-10.4166
▁Bridge	-10.4167
▁50%	-10.4167
▁retain	-10.417
▁broken	-10.4172
▁consumed	-10.4174
▁encompasses	-10.4175
▁bomb	-10.4176
scale	-10.4176
▁palat	-10.418
nasal	-10.418
▁tract	-10.4182
▁advance	-10.4183
▁raised	-10.4186
▁coastal	-10.4193
▁inches	-10.4195
rine	-10.4206
▁promot	-10.4208
▁presented	-10.4212
▁repeated	-10.4212
▁Other	-10.423
▁Second	-10.4239
lle	-10.4243
▁chor	-10.4256
▁closed	-10.4259
▁enabl	-10.427
▁mode	-10.4274
hin	-10.4282
▁epi	-10.4283
▁wet	-10.4323
ony	-10.4368
fare	-10.4374
var	-10.4377
otic	-10.4383
▁eliminat	-10.4401
century	-10.4402
equal	-10.4403
CC	-10.4405
multiplication	-10.4407
AN	-10.441
▁expect	-10.4414
▁weigh	-10.4418
▁fee	-10.4427
▁performing	-10.4437
flo	-10.444
▁gradual	-10.4442
range	-10.4458
▁import	-10.4488
▁hypo	-10.4489
voluntary	-10.449
▁Jefferson	-10.449
▁Philippine	-10.449
▁acknowledg	-10.449
▁chronic	-10.449
▁defensive	-10.449
▁ecosystem	-10.449
▁emperor	-10.449
▁heavy	-10.449
▁intellectual	-10.449
▁mortality	-10.449
▁mutual	-10.449
▁penalties	-10.449
▁punishment	-10.449
▁sculpt	-10.449
▁synthet	-10.449
▁technologies	-10.449
▁opinion	-10.4491
▁transaction	-10.4491
▁RNA	-10.4491
▁abdom	-10.4491
▁dominate	-10.4491
▁awareness	-10.4491
▁acquir	-10.4491
▁crisis	-10.4491
▁scene	-10.4491
▁neural	-10.4491
▁Games	-10.4491
▁illness	-10.4491
▁decid	-10.4492
▁worse	-10.4492
▁surgery	-10.4492
▁Eastern	-10.4493
▁Old	-10.4493
▁atoms	-10.4495
chrom	-10.4495
▁estate	-10.4495
▁Start	-10.4497
pped	-10.4498
▁reproduction	-10.4499
▁shell	-10.4504
▁arrived	-10.4505
▁remove	-10.4509
▁standardized	-10.4512
▁anterior	-10.4515
▁electronic	-10.4515
▁execution	-10.4517
▁capture	-10.4518
▁hit	-10.4528
terran	-10.453
▁originated	-10.4547
▁Mark	-10.4549
▁goes	-10.4556
SD	-10.4563
▁participat	-10.4566
▁Ver	-10.4569
▁linked	-10.4576
▁Han	-10.4585
▁eat	-10.4586
non	-10.459
▁Chi	-10.4594
ode	-10.46
ola	-10.4605
▁derived	-10.4621
▁feeling	-10.4629
▁emerge	-10.4675
erto	-10.4699
uff	-10.4708
▁citizens	-10.4716
▁Pale	-10.4721
speak	-10.4729
aci	-10.4732
▁holding	-10.474
IN	-10.4749
known	-10.4751
▁zone	-10.4752
▁substance	-10.4753
field	-10.4758
▁spin	-10.4763
formed	-10.4768
▁hol	-10.477
GC	-10.4777
▁select	-10.4779
▁desire	-10.4804
▁eu	-10.4811
▁authentic	-10.483
▁proceed	-10.4831
▁exponent	-10.4833
▁epidemiolog	-10.4835
▁Denmark	-10.4835
▁Office	-10.4835
▁college	-10.4835
▁exploration	-10.4835
▁intelligence	-10.4835
▁minister	-10.4835
▁prominence	-10.4835
▁supplement	-10.4835
▁surpass	-10.4835
▁prestig	-10.4835
▁quote	-10.4835
▁venue	-10.4835
▁coincid	-10.4835
▁kilogram	-10.4835
▁personnel	-10.4836
▁theorem	-10.4836
▁violations	-10.4836
▁sperm	-10.4836
▁trait	-10.4837
▁differentiate	-10.4838
TA	-10.4838
chlor	-10.4839
▁urine	-10.4839
▁minority	-10.4842
▁greatest	-10.4845
▁baseline	-10.4845
▁vein	-10.4845
▁impair	-10.4849
ima	-10.485
▁divine	-10.4851
▁teacher	-10.4853
▁steam	-10.4861
▁choose	-10.4867
▁users	-10.4873
▁longest	-10.4874
▁Mor	-10.4875
BA	-10.4879
▁reality	-10.4881
lets	-10.4888
▁fun	-10.4904
▁revolution	-10.4909
▁constructed	-10.4912
▁(7	-10.4918
▁ensur	-10.4924
rian	-10.4925
▁referenced	-10.493
▁Anti	-10.4938
▁rape	-10.4939
▁differential	-10.4945
▁prove	-10.4946
▁pet	-10.4958
▁qua	-10.4964
ford	-10.4999
gin	-10.4999
digenous	-10.5004
▁covered	-10.5021
ought	-10.5022
2/	-10.5023
▁producer	-10.5025
trust	-10.5041
CO	-10.5049
▁Mary	-10.5051
27	-10.5069
▁Met	-10.5093
stream	-10.5122
specific	-10.5126
where	-10.5136
lateral	-10.5137
regulat	-10.5146
▁opening	-10.517
▁player	-10.5186
▁exam	-10.5191
▁crystal	-10.5192
▁Battle	-10.5192
▁College	-10.5192
▁Institute	-10.5192
▁abilities	-10.5192
▁chicken	-10.5192
▁democratic	-10.5192
▁earthquake	-10.5192
▁evaluating	-10.5192
▁glucose	-10.5192
▁insufficient	-10.5192
▁maintenance	-10.5192
▁plasma	-10.5192
▁quadratic	-10.5192
▁speculative	-10.5192
▁Pakistan	-10.5192
▁Turkey	-10.5192
▁cardiac	-10.5192
▁compensat	-10.5192
▁intensity	-10.5192
▁occurrence	-10.5192
▁sweet	-10.5193
▁dropped	-10.5193
▁string	-10.5193
▁prompt	-10.5193
▁geometry	-10.5193
▁historian	-10.5193
sacred	-10.5193
▁mild	-10.5193
▁Iran	-10.5193
ceased	-10.5193
▁entities	-10.5193
▁legend	-10.5193
▁nutritional	-10.5193
▁drop	-10.5194
▁subset	-10.5194
▁employee	-10.5194
sphere	-10.5194
▁facing	-10.5194
▁bigger	-10.5195
▁boundary	-10.5195
▁Grand	-10.5196
▁probab	-10.5197
▁1998	-10.5198
▁BCE	-10.5198
▁That	-10.5199
▁cyst	-10.52
▁flag	-10.5202
▁Native	-10.5205
▁perceived	-10.5205
▁playing	-10.5205
▁1940	-10.5208
▁Hong	-10.521
▁branches	-10.5216
▁utilize	-10.5218
Find	-10.5231
▁fell	-10.5231
7)	-10.5233
▁preserve	-10.5258
▁intention	-10.5262
▁inner	-10.5262
cut	-10.5268
▁fatal	-10.5271
▁Islam	-10.5272
5)	-10.5286
▁Marc	-10.5291
▁waste	-10.5298
▁observ	-10.5325
4.5	-10.5341
methyl	-10.5362
nya	-10.5368
▁incorporat	-10.5441
aj	-10.5441
▁hydro	-10.5451
▁passing	-10.5454
IA	-10.5462
▁participate	-10.5468
▁meta	-10.5476
▁Pla	-10.549
▁sustain	-10.5493
▁ingredient	-10.5508
▁complication	-10.551
shaped	-10.5511
▁diet	-10.5512
▁image	-10.5514
down	-10.5519
wood	-10.5519
style	-10.552
▁Indonesia	-10.5524
▁logic	-10.5524
hab	-10.5524
dating	-10.5525
▁write	-10.5551
_3">	-10.5563
responsibilities	-10.5563
▁Ottoman	-10.5563
▁absorption	-10.5563
▁chocolate	-10.5563
▁conservative	-10.5563
▁guarantee	-10.5563
▁manuscript	-10.5563
▁website	-10.5563
Science	-10.5563
▁Muhammad	-10.5563
▁Virginia	-10.5563
▁burden	-10.5563
▁ecological	-10.5563
▁Austria	-10.5563
▁1979	-10.5563
▁universe	-10.5563
▁copies	-10.5563
▁workshop	-10.5563
▁voltage	-10.5563
▁delegat	-10.5563
▁familiar	-10.5563
▁huge	-10.5563
▁2003	-10.5563
▁everything	-10.5563
▁lift	-10.5564
▁maternal	-10.5564
History	-10.5564
▁counterpart	-10.5564
▁paid	-10.5564
Dutch	-10.5564
▁hypothe	-10.5564
▁Robert	-10.5564
▁search	-10.5565
▁flour	-10.5565
▁batter	-10.5566
▁entity	-10.5566
▁capability	-10.5566
▁veto	-10.5566
▁assistance	-10.5567
▁genre	-10.5567
▁medium	-10.5568
▁Java	-10.5568
▁distribute	-10.5569
▁Human	-10.557
▁boy	-10.557
▁mating	-10.5579
▁sought	-10.5582
▁emergency	-10.5586
▁54	-10.5586
▁problematic	-10.5589
law	-10.5592
▁Rather	-10.5594
▁Carol	-10.5595
▁van	-10.56
▁promotion	-10.5618
cis	-10.5626
▁engaged	-10.5626
eval	-10.5637
▁Age	-10.5642
▁stu	-10.5646
▁treaty	-10.565
▁replaced	-10.5651
▁Yu	-10.5653
▁addresses	-10.5667
▁leg	-10.5672
▁je	-10.5674
ography	-10.5723
▁hid	-10.5728
▁Fra	-10.5729
▁cleaning	-10.5739
forced	-10.5745
▁winn	-10.5781
plu	-10.5784
▁genera	-10.5787
700	-10.5789
aya	-10.5817
▁bin	-10.5821
generat	-10.5835
grown	-10.5839
rose	-10.585
race	-10.5872
▁oppos	-10.5877
Z	-10.5903
▁thousand	-10.5906
▁task	-10.5909
division	-10.591
▁tub	-10.5914
▁minu	-10.5915
total	-10.5919
▁historic	-10.5922
tress	-10.5928
▁complement	-10.5944
▁south	-10.5946
▁Assembly	-10.5947
▁Richard	-10.5947
▁Zealand	-10.5947
▁accumulate	-10.5947
▁advertising	-10.5947
▁atmospheric	-10.5947
▁destroy	-10.5947
▁diabetes	-10.5947
▁hormonal	-10.5947
▁judgment	-10.5947
▁magnitude	-10.5947
▁participants	-10.5947
▁professor	-10.5947
▁regression	-10.5947
▁unchanged	-10.5947
▁Museum	-10.5947
▁conquest	-10.5947
▁murder	-10.5947
▁staff	-10.5947
▁1983	-10.5947
▁Service	-10.5947
▁abortion	-10.5947
▁pounds	-10.5948
▁Venus	-10.5948
▁trading	-10.5948
▁mill	-10.5948
▁Atlant	-10.5948
▁Army	-10.5948
▁prism	-10.5948
▁depict	-10.5948
▁laboratory	-10.5948
▁crop	-10.5948
▁blade	-10.5949
▁consent	-10.5949
▁dramatically	-10.595
▁guard	-10.5951
/5	-10.5951
▁infant	-10.5951
▁automat	-10.5951
▁discipline	-10.5953
▁1968	-10.5954
▁yard	-10.5954
▁theories	-10.5956
back	-10.5958
▁deliberate	-10.5959
▁pack	-10.5964
▁Jan	-10.5964
▁doctrine	-10.5968
▁considerable	-10.5968
ball	-10.5969
▁appointed	-10.5971
atory	-10.5971
▁corn	-10.5976
▁beans	-10.5982
▁delivery	-10.5994
▁presentation	-10.6007
▁pill	-10.6009
▁multiplier	-10.6013
▁rationale	-10.6025
owned	-10.6027
▁yes	-10.6032
ference	-10.6046
▁ships	-10.6049
▁fourth	-10.6057
▁secure	-10.608
▁disc	-10.6123
▁survive	-10.6124
gun	-10.6143
aimed	-10.6146
▁deeply	-10.6147
distributive	-10.615
▁treated	-10.6152
▁AI	-10.6155
▁trip	-10.6162
▁shap	-10.6178
mount	-10.6233
▁sit	-10.6266
▁solve	-10.627
ius	-10.6276
▁repeat	-10.628
TH	-10.6282
rick	-10.6293
▁electro	-10.6299
▁comprise	-10.6304
toxic	-10.6325
▁provision	-10.6325
▁relie	-10.6325
play	-10.6333
▁hom	-10.6334
squared	-10.6334
▁consolidat	-10.6336
▁sale	-10.6337
▁excess	-10.6342
angular	-10.6344
▁bound	-10.6345
▁journal	-10.6345
▁spirit	-10.6347
▁cinema	-10.6347
{	-10.6347
▁Organization	-10.6347
▁Pennsylvania	-10.6347
▁Society	-10.6347
▁climb	-10.6347
▁emerging	-10.6347
▁emission	-10.6347
▁legitimate	-10.6347
▁magazine	-10.6347
▁merchant	-10.6347
▁methodologies	-10.6347
▁neutron	-10.6347
▁precipitation	-10.6347
▁referencing	-10.6347
▁register	-10.6347
▁residence	-10.6347
▁stroke	-10.6347
▁suspension	-10.6347
denomination	-10.6347
▁County	-10.6347
▁Middle	-10.6347
▁Obama	-10.6347
▁smoke	-10.6347
▁street	-10.6347
▁trillion	-10.6347
▁spatial	-10.6347
▁babies	-10.6347
▁considerably	-10.6347
▁picture	-10.6347
▁invasion	-10.6347
▁brown	-10.6348
▁monarch	-10.6348
▁suburb	-10.6348
▁crani	-10.6348
▁label	-10.6348
▁stamp	-10.6348
▁Work	-10.6348
▁autonom	-10.6348
▁speakers	-10.6348
▁electricity	-10.6348
▁Modern	-10.6348
▁talk	-10.6348
▁Gulf	-10.6349
▁sharing	-10.6349
▁stick	-10.6349
▁Revolution	-10.6349
▁shot	-10.6349
▁consistency	-10.6349
▁introduction	-10.6349
的	-10.6349
▁discoveries	-10.635
▁transferred	-10.6351
▁membership	-10.6351
▁Plate	-10.6351
▁prefer	-10.6354
▁conceptual	-10.6355
▁engagement	-10.6355
▁rating	-10.6356
▁manufacturer	-10.6356
bert	-10.6357
▁withdrawal	-10.6359
▁unified	-10.6361
▁agreed	-10.6362
▁Armenian	-10.6364
▁favorable	-10.6364
▁Rome	-10.6366
bility	-10.6366
▁administered	-10.6371
▁Super	-10.6374
▁flat	-10.6375
▁EU	-10.638
▁invent	-10.639
▁exclusively	-10.6392
▁flu	-10.6394
▁closer	-10.6394
Life	-10.6397
▁Gal	-10.6401
▁simpler	-10.641
▁Mill	-10.641
eating	-10.6416
losing	-10.6424
▁businesses	-10.6427
PO	-10.643
▁restore	-10.6439
▁reco	-10.6442
▁Australian	-10.6445
▁literal	-10.6475
▁Hall	-10.6477
▁500	-10.6505
▁entered	-10.6508
▁designat	-10.653
▁inverse	-10.6531
▁container	-10.6533
▁160	-10.6566
▁establishe	-10.6573
EN	-10.6605
▁enhanc	-10.6611
▁protected	-10.6623
posed	-10.6635
▁1.0	-10.664
▁shown	-10.6645
▁lateral	-10.6646
ternal	-10.6648
▁sent	-10.6648
iya	-10.6653
▁monitor	-10.6657
▁introduc	-10.6695
▁parameter	-10.6709
stract	-10.6737
▁investigat	-10.6753
▁mutation	-10.6758
−	-10.6761
▁recruit	-10.6764
Current	-10.6764
Industrial	-10.6764
pyramid	-10.6764
ī	-10.6764
▁Byzantine	-10.6764
▁Director	-10.6764
▁Michael	-10.6764
▁atmosphere	-10.6764
▁bottom	-10.6764
▁displacement	-10.6764
▁entertainment	-10.6764
▁flexibility	-10.6764
▁genuine	-10.6764
▁hemisphere	-10.6764
▁mechanics	-10.6764
▁mitochondria	-10.6764
▁physician	-10.6764
▁privilege	-10.6764
▁registration	-10.6764
▁responsibility	-10.6764
▁smooth	-10.6764
▁sophisticated	-10.6764
▁testosterone	-10.6764
▁Moscow	-10.6764
▁deficiency	-10.6764
▁exclude	-10.6764
▁incredibl	-10.6764
▁versatil	-10.6764
▁pursue	-10.6764
▁1971	-10.6764
▁burial	-10.6764
▁crack	-10.6764
▁Nobel	-10.6764
▁delta	-10.6764
▁twin	-10.6764
▁taste	-10.6764
▁finish	-10.6764
▁fiction	-10.6764
▁noise	-10.6764
▁Rights	-10.6765
▁jury	-10.6765
▁accus	-10.6765
▁analytic	-10.6765
▁societies	-10.6765
town	-10.6765
pharynge	-10.6765
▁cash	-10.6765
▁portray	-10.6766
chloride	-10.6766
oriented	-10.6767
▁window	-10.6767
▁tablets	-10.6768
▁hearing	-10.6768
weight	-10.6768
nfortunately	-10.6769
high	-10.6769
▁radius	-10.6769
▁Egyptian	-10.677
▁master	-10.6771
RT	-10.6771
Step	-10.6771
▁lose	-10.6773
▁laser	-10.6773
▁healing	-10.6775
▁disruption	-10.6778
▁spoken	-10.678
▁earth	-10.6782
▁20%	-10.6785
▁Later	-10.6786
▁10%	-10.6788
▁Jain	-10.6789
▁dishes	-10.679
volt	-10.6791
▁Hill	-10.6791
▁flying	-10.6791
▁organic	-10.6798
▁geo	-10.68
▁verbal	-10.68
▁Khan	-10.6801
00,000	-10.6804
place	-10.681
▁Equ	-10.6811
▁carrie	-10.6812
muscular	-10.6815
▁gases	-10.6825
▁(8	-10.6825
▁launched	-10.6828
▁(6	-10.6835
fish	-10.6837
▁opposed	-10.684
▁sustained	-10.6842
▁captured	-10.685
pper	-10.6853
▁encountered	-10.6854
▁tender	-10.686
▁adapted	-10.6866
esium	-10.6876
▁carefully	-10.688
▁habit	-10.6887
grade	-10.6914
hai	-10.6925
▁reporting	-10.6948
▁(10	-10.6955
fan	-10.6966
▁pie	-10.7027
DC	-10.703
fected	-10.704
ür	-10.7042
3.5	-10.7043
▁improv	-10.7048
▁multipli	-10.7083
▁Tai	-10.7114
73	-10.7129
▁send	-10.713
▁prepar	-10.713
▁fix	-10.7144
▁exclusive	-10.715
▁beam	-10.7156
100	-10.7169
▁possib	-10.7179
▁accomplish	-10.7194
▁Hollywood	-10.7199
▁Orthodox	-10.7199
▁aggregate	-10.7199
▁agriculture	-10.7199
▁coalition	-10.7199
▁commerce	-10.7199
▁conjugate	-10.7199
▁controversy	-10.7199
▁cuisine	-10.7199
▁derivative	-10.7199
▁franchise	-10.7199
▁illegal	-10.7199
▁impressive	-10.7199
▁incidence	-10.7199
▁phenomena	-10.7199
▁psychology	-10.7199
▁sensitive	-10.7199
▁simplifie	-10.7199
▁smoking	-10.7199
▁statute	-10.7199
corrupt	-10.7199
å	-10.7199
▁investor	-10.7199
▁nuclei	-10.7199
▁retriev	-10.7199
▁strike	-10.7199
▁worship	-10.7199
▁cumul	-10.7199
▁1996	-10.7199
▁Trans	-10.7199
▁teeth	-10.7199
▁1952	-10.7199
▁Trade	-10.7199
▁infinite	-10.7199
▁Sultan	-10.7199
▁grammar	-10.7199
▁premier	-10.7199
▁extinct	-10.7199
▁borrow	-10.7199
▁helium	-10.7199
▁predate	-10.7199
▁priest	-10.7199
▁session	-10.7199
▁escape	-10.7199
▁taxonom	-10.7199
▁racial	-10.7199
▁Bank	-10.7199
Before	-10.7199
▁interfere	-10.72
▁desert	-10.72
▁baking	-10.72
▁club	-10.72
▁profound	-10.72
aught	-10.72
▁senators	-10.72
▁lesion	-10.7201
▁fear	-10.7201
▁warning	-10.7201
▁1.5	-10.7201
▁prolong	-10.7202
▁melt	-10.7202
▁lifestyle	-10.7202
▁exponential	-10.7202
person	-10.7203
atomic	-10.7203
▁duty	-10.7204
▁dataset	-10.7204
▁cancel	-10.7206
▁slavery	-10.7207
hasa	-10.7208
▁everyone	-10.7209
▁1988	-10.7209
▁weapon	-10.7214
▁suffer	-10.7214
▁Christianity	-10.7214
▁constraint	-10.7214
▁declaration	-10.7215
face	-10.7217
▁tomb	-10.7218
power	-10.7219
documented	-10.7219
▁arrang	-10.722
▁financ	-10.722
▁Elect	-10.7222
▁initiative	-10.7223
▁monk	-10.7223
exposed	-10.7231
▁evolving	-10.7232
▁blend	-10.7235
▁viruses	-10.7242
▁placement	-10.7247
▁determination	-10.7252
▁scar	-10.7256
▁tid	-10.7266
▁Hol	-10.727
▁assigned	-10.7276
▁losses	-10.7286
ptic	-10.7301
▁issued	-10.7305
how	-10.7314
▁corona	-10.7316
▁tea	-10.7328
▁cable	-10.7341
▁glo	-10.7367
ody	-10.7368
optical	-10.7398
▁license	-10.7403
▁preserv	-10.745
▁meal	-10.7478
▁secur	-10.7494
▁Chan	-10.7526
rove	-10.7529
▁launch	-10.7585
▁bind	-10.7599
▁quick	-10.7606
▁acet	-10.7607
ois	-10.7612
▁evolve	-10.762
▁respect	-10.7626
▁raise	-10.7634
▁Val	-10.7636
ridge	-10.7648
▁reinforce	-10.7648
clusion	-10.7652
tier	-10.7653
▁cyclo	-10.7653
▁pancreati	-10.7653
▁stabiliz	-10.7653
microscopic	-10.7653
saturated	-10.7653
·	-10.7653
▁Academ	-10.7653
▁Caribbean	-10.7653
▁Emperor	-10.7653
▁HIV	-10.7653
▁Lincoln	-10.7653
▁Megatron	-10.7653
▁Swiss	-10.7653
▁Turkish	-10.7653
▁Ukrainian	-10.7653
▁admission	-10.7653
▁antibiotic	-10.7653
▁cavity	-10.7653
▁column	-10.7653
▁controversial	-10.7653
▁decisive	-10.7653
▁devastating	-10.7653
▁enjoy	-10.7653
▁expedition	-10.7653
▁expensive	-10.7653
▁fabric	-10.7653
▁galaxy	-10.7653
▁horizontal	-10.7653
▁identification	-10.7653
▁nutrient	-10.7653
▁opponent	-10.7653
▁proximity	-10.7653
▁remember	-10.7653
▁skull	-10.7653
▁solving	-10.7653
▁troops	-10.7653
▁velocity	-10.7653
▁violent	-10.7653
▁contradict	-10.7653
▁likelihood	-10.7653
▁mistake	-10.7653
▁elastic	-10.7653
▁Norway	-10.7653
▁sauce	-10.7653
▁width	-10.7653
▁Article	-10.7654
▁folk	-10.7654
▁internet	-10.7654
▁isolated	-10.7654
▁predator	-10.7654
▁jump	-10.7654
▁Film	-10.7654
▁agency	-10.7654
▁thorough	-10.7654
▁Health	-10.7654
▁Royal	-10.7654
genital	-10.7654
▁imposed	-10.7654
▁enroll	-10.7654
▁citizenship	-10.7654
▁silver	-10.7654
▁dissent	-10.7655
▁orchestra	-10.7655
▁fibr	-10.7655
visibility	-10.7657
▁1973	-10.7657
▁Nations	-10.7659
▁catalyst	-10.766
▁faci	-10.7661
▁Think	-10.7662
▁1933	-10.7663
UC	-10.7663
▁90%	-10.7663
▁pull	-10.7664
▁ceremonies	-10.7665
▁Team	-10.7665
▁tribe	-10.7665
▁judges	-10.7666
▁retir	-10.7668
▁priority	-10.7668
▁activation	-10.7669
▁setup	-10.7676
nversely	-10.7682
▁protocol	-10.7691
correct	-10.7696
stock	-10.77
▁LE	-10.7702
▁strain	-10.7708
▁Tang	-10.7709
▁waiting	-10.7722
▁perfectly	-10.773
▁prevention	-10.7742
▁47	-10.7745
▁projection	-10.7754
▁successor	-10.7762
000	-10.7763
▁cataly	-10.7764
von	-10.7781
▁obtained	-10.7785
Star	-10.7793
▁lot	-10.7796
cap	-10.78
histori	-10.7833
▁ferr	-10.7834
▁Bill	-10.7862
1.6	-10.7869
citation	-10.7878
coming	-10.7905
▁circula	-10.7932
▁discret	-10.7941
▁resign	-10.7966
▁liter	-10.7981
IF	-10.7987
▁complet	-10.7992
pproximate	-10.7994
▁Pope	-10.8011
▁optic	-10.8015
▁breath	-10.8022
▁hunt	-10.8026
▁Nu	-10.8032
▁recover	-10.8103
▁uncle	-10.8121
▁opportunit	-10.8126
▁embryo	-10.8129
ū	-10.813
▁condemn	-10.813
hierarchical	-10.813
▁Afghanistan	-10.813
▁Championship	-10.813
▁Department	-10.813
▁Georgia	-10.813
▁Greece	-10.813
▁Standard	-10.813
▁Swedish	-10.813
▁aggressive	-10.813
▁anniversar	-10.813
▁consensus	-10.813
▁council	-10.813
▁destruction	-10.813
▁dioxide	-10.813
▁dwarf	-10.813
▁elaborate	-10.813
▁exemption	-10.813
▁flood	-10.813
▁intuitive	-10.813
▁nomination	-10.813
▁propagation	-10.813
▁reception	-10.813
▁remote	-10.813
▁sacrifice	-10.813
▁seizure	-10.813
▁symmetry	-10.813
▁assault	-10.813
▁mobile	-10.813
▁neutral	-10.813
▁powder	-10.813
conscious	-10.813
junction	-10.813
▁expertise	-10.813
▁honey	-10.813
▁injuries	-10.813
▁Ocean	-10.813
▁venture	-10.813
▁thermodynamic	-10.813
▁cattle	-10.813
▁finite	-10.813
▁automo	-10.813
▁promise	-10.813
ratified	-10.813
▁Class	-10.813
▁rival	-10.813
▁plot	-10.813
ER	-10.813
▁gestation	-10.813
▁Pyth	-10.813
▁childhood	-10.813
▁brother	-10.813
▁androgen	-10.8131
▁cited	-10.8131
▁iconic	-10.8131
▁fission	-10.8131
Initial	-10.8131
▁Greenland	-10.8131
▁stuff	-10.8131
▁unemployment	-10.8131
▁dying	-10.8132
▁interference	-10.8132
▁intake	-10.8133
ckey	-10.8134
dental	-10.8134
ordinary	-10.8135
▁belt	-10.8136
▁inflammation	-10.8136
▁excessive	-10.8137
▁1981	-10.8138
▁1965	-10.8139
▁Yuan	-10.8139
▁1984	-10.8139
▁Kong	-10.8145
▁cord	-10.8145
▁correlate	-10.8146
▁lifetime	-10.8147
▁summit	-10.8147
▁chose	-10.8147
▁1975	-10.8149
▁thin	-10.815
▁cosm	-10.8151
▁1920	-10.8151
▁inhibition	-10.8154
▁driver	-10.8156
▁Rule	-10.8171
▁spinal	-10.8172
▁masses	-10.8185
|	-10.8192
▁Dev	-10.8193
▁commander	-10.8195
system	-10.8196
second	-10.8197
▁prepared	-10.8206
▁mile	-10.8206
book	-10.8208
fall	-10.8224
▁triple	-10.8241
treat	-10.8248
▁preserved	-10.8249
▁confirmation	-10.8252
▁continuously	-10.8261
▁elevat	-10.8267
▁lighter	-10.8279
▁emergenc	-10.8279
▁tape	-10.8287
▁improved	-10.8291
▁Mongolia	-10.83
▁critic	-10.8333
▁cyto	-10.849
▁coordinat	-10.8503
▁Die	-10.8521
intentional	-10.8548
tropical	-10.8551
▁minimize	-10.8584
▁organize	-10.8587
▁confus	-10.8619
▁Kazakh	-10.863
▁vulnerab	-10.863
▁accompani	-10.863
terrestrial	-10.863
▁Joseph	-10.863
▁Kentucky	-10.863
▁Portugal	-10.863
▁Similar	-10.863
▁centimeters	-10.863
▁ceramic	-10.863
▁explosive	-10.863
▁genome	-10.863
▁holiday	-10.863
▁inheritance	-10.863
▁longevity	-10.863
▁memorial	-10.863
▁navigation	-10.863
▁obesity	-10.863
▁pollution	-10.863
▁routine	-10.863
▁succeed	-10.863
▁symmetric	-10.863
▁tunnel	-10.863
silicate	-10.863
▁Corporation	-10.863
▁medicine	-10.863
▁Mountain	-10.863
▁computing	-10.863
▁premise	-10.863
▁comfort	-10.863
▁retirement	-10.863
▁watch	-10.863
▁millimeters	-10.863
▁premium	-10.863
▁Association	-10.863
▁inhabitants	-10.863
▁bleeding	-10.863
▁push	-10.863
allocated	-10.863
▁trauma	-10.863
▁fleet	-10.863
▁botan	-10.863
▁Year	-10.863
▁earned	-10.863
▁ATP	-10.863
▁snow	-10.863
▁chart	-10.8631
▁oxidation	-10.8631
▁lobe	-10.8632
▁cream	-10.8632
▁chance	-10.8632
▁hope	-10.8633
▁biology	-10.8633
metry	-10.8633
▁committed	-10.8634
ocene	-10.8634
▁bull	-10.8635
▁rising	-10.8635
▁informal	-10.8635
craft	-10.8636
▁cultivation	-10.8636
▁abuse	-10.8637
▁oven	-10.8637
ense	-10.8638
▁1997	-10.8638
▁1964	-10.8641
▁nei	-10.8642
▁Rico	-10.8642
▁2030	-10.8643
▁finger	-10.8644
PR	-10.8646
▁99	-10.8652
▁swallowing	-10.8655
▁assembly	-10.8656
▁exile	-10.8659
authoriz	-10.8666
multiplicati	-10.8673
▁Fund	-10.8675
▁camera	-10.8681
▁soul	-10.8691
▁originate	-10.8696
bird	-10.871
▁resident	-10.8717
DL	-10.872
aving	-10.8722
present	-10.8723
board	-10.8728
trans	-10.8732
odon	-10.8745
▁manipulat	-10.875
▁visitor	-10.8754
speed	-10.8755
▁motivation	-10.8759
trial	-10.8812
5.5	-10.8815
iff	-10.8817
carp	-10.8835
10,000	-10.884
▁circulat	-10.8859
gging	-10.8873
▁stea	-10.8886
▁criticiz	-10.8887
▁hill	-10.8907
Rate	-10.8938
▁Balt	-10.8955
enne	-10.8967
artial	-10.8968
netary	-10.9022
Cold	-10.9042
alysis	-10.9055
▁purchas	-10.9079
placed	-10.9088
Free	-10.9088
media	-10.9106
▁simultaneous	-10.9108
phi	-10.9112
holder	-10.9112
▁Plan	-10.9124
▁radi	-10.9134
▁popul	-10.9137
▁economi	-10.9138
▁ceremoni	-10.9143
closure	-10.9154
▁abnormal	-10.9154
Subtract	-10.9156
▁Communist	-10.9156
▁Festival	-10.9156
▁Michigan	-10.9156
▁Norwegian	-10.9156
▁Victoria	-10.9156
▁advocat	-10.9156
▁americium	-10.9156
▁capsule	-10.9156
▁carbohydrate	-10.9156
▁certificate	-10.9156
▁complicate	-10.9156
▁currency	-10.9156
▁deployment	-10.9156
▁discharge	-10.9156
▁empty	-10.9156
▁encourag	-10.9156
▁ethanol	-10.9156
▁fulfill	-10.9156
▁galaxies	-10.9156
▁industries	-10.9156
▁navigate	-10.9156
▁nickname	-10.9156
▁quantitative	-10.9156
▁sibling	-10.9156
▁anemia	-10.9156
▁elderly	-10.9156
▁mandatory	-10.9156
▁qualify	-10.9156
▁sharks	-10.9156
▁quarter	-10.9156
possibility	-10.9156
▁expert	-10.9156
▁heritage	-10.9156
▁kinase	-10.9156
▁overcome	-10.9156
▁ceiling	-10.9156
▁ticket	-10.9156
▁retail	-10.9156
▁FDA	-10.9156
▁Women	-10.9156
▁duties	-10.9156
▁funeral	-10.9156
▁cerebr	-10.9156
▁consecutive	-10.9156
▁celest	-10.9156
▁malignan	-10.9156
▁alliance	-10.9156
▁saliva	-10.9156
▁IBM	-10.9156
▁inscription	-10.9156
▁Panther	-10.9156
▁mosque	-10.9156
skelet	-10.9156
▁grew	-10.9156
▁communist	-10.9156
▁hernia	-10.9157
▁monast	-10.9157
▁differentiation	-10.9157
▁northeast	-10.9157
▁Persian	-10.9157
▁pulse	-10.9157
▁valve	-10.9157
▁Wales	-10.9157
▁Vietnamese	-10.9157
▁dissolution	-10.9157
▁controlling	-10.9158
▁Albert	-10.9158
▁spring	-10.9158
▁excis	-10.9158
▁assets	-10.9158
▁adhere	-10.9158
▁refracti	-10.9159
▁prostate	-10.9159
▁innervat	-10.9159
▁manual	-10.916
▁productivity	-10.916
▁Martin	-10.916
▁Common	-10.916
dition	-10.916
▁uncertainty	-10.9161
▁Mount	-10.9161
▁Sunday	-10.9162
▁Cuba	-10.9162
▁arteries	-10.9162
▁palm	-10.9163
▁1906	-10.9164
▁terminal	-10.9164
▁fertilization	-10.9164
▁manifestation	-10.9164
▁wonder	-10.9165
▁germ	-10.9166
▁assert	-10.9166
▁backward	-10.9166
▁cargo	-10.9167
▁1949	-10.9167
▁decorati	-10.9167
▁consolidation	-10.9171
▁Magn	-10.9171
▁prohibition	-10.9175
▁lun	-10.9175
▁passive	-10.9176
▁batches	-10.918
▁glyc	-10.9185
▁strengthen	-10.9187
▁truth	-10.9187
▁moth	-10.9188
▁reward	-10.919
▁100,000	-10.9191
▁auto	-10.9192
▁rejected	-10.9196
▁outline	-10.9196
▁rotation	-10.9196
▁coco	-10.9197
▁TV	-10.9198
▁difficulties	-10.92
▁equality	-10.9202
▁25%	-10.9205
vertebrate	-10.9206
▁Indonesian	-10.9212
▁theater	-10.922
▁pig	-10.923
▁disk	-10.9232
▁slower	-10.9232
▁mg	-10.9238
▁reactor	-10.9246
-18	-10.9247
▁particle	-10.9274
word	-10.9278
third	-10.9283
50,000	-10.931
▁hum	-10.9313
diagnosed	-10.9324
▁topical	-10.9329
▁overlap	-10.9341
mind	-10.9395
▁facilitat	-10.9397
▁Big	-10.941
▁Jin	-10.9413
▁Napoleon	-10.9429
position	-10.9439
720	-10.9537
human	-10.966
alea	-10.9671
▁poll	-10.9685
▁squa	-10.9687
▁quant	-10.9693
▁manufacture	-10.9699
▁communicat	-10.9701
▁manifest	-10.9703
▁divisib	-10.9708
▁drama	-10.9709
nutrition	-10.971
aldehyde	-10.9712
propaganda	-10.9712
≡	-10.9712
▁Economic	-10.9712
▁Harvard	-10.9712
▁Mexican	-10.9712
▁Scott	-10.9712
▁Uruguay	-10.9712
▁artifacts	-10.9712
▁assignment	-10.9712
▁battalions	-10.9712
▁beautiful	-10.9712
▁beneficial	-10.9712
▁cortex	-10.9712
▁critique	-10.9712
▁efficacy	-10.9712
▁empirical	-10.9712
▁headquarter	-10.9712
▁hierarchy	-10.9712
▁hydroxide	-10.9712
▁hyperbola	-10.9712
▁injection	-10.9712
▁pandemic	-10.9712
▁perpendicular	-10.9712
▁reliably	-10.9712
▁sampling	-10.9712
▁satisfy	-10.9712
▁scandal	-10.9712
▁scrolls	-10.9712
▁statue	-10.9712
▁utility	-10.9712
▁witnesses	-10.9712
▁Taiwan	-10.9712
▁UNESCO	-10.9712
▁ethics	-10.9712
▁maxilla	-10.9712
▁obstruct	-10.9712
▁rebellion	-10.9712
▁revision	-10.9712
▁spectro	-10.9712
▁workforce	-10.9712
▁anatomy	-10.9712
▁compass	-10.9712
▁Lutheran	-10.9712
▁automatically	-10.9712
▁1991	-10.9712
▁School	-10.9712
▁sponsorship	-10.9712
▁warrant	-10.9712
Food	-10.9712
▁Frank	-10.9712
▁DHA	-10.9712
▁Ohio	-10.9712
▁dialect	-10.9712
▁settled	-10.9712
▁David	-10.9712
▁draft	-10.9712
▁inequality	-10.9712
▁steady	-10.9712
▁Berlin	-10.9712
▁asteroid	-10.9712
▁verified	-10.9712
▁operator	-10.9712
▁headache	-10.9712
▁toxicity	-10.9712
▁garden	-10.9712
▁polymer	-10.9712
▁ascend	-10.9712
Number	-10.9712
▁instability	-10.9712
▁filling	-10.9712
▁vocal	-10.9712
▁Shah	-10.9712
▁shade	-10.9712
neath	-10.9712
▁giant	-10.9712
▁Ireland	-10.9712
▁analog	-10.9713
▁recreation	-10.9713
occupied	-10.9713
▁shortfall	-10.9713
▁floor	-10.9713
▁imprisonment	-10.9713
▁Nazi	-10.9714
▁harsh	-10.9714
▁Adam	-10.9714
▁loop	-10.9714
▁boat	-10.9715
▁conference	-10.9715
▁complementary	-10.9716
▁subunit	-10.9716
▁charit	-10.9717
▁Lord	-10.9717
▁bullet	-10.9717
▁acceptance	-10.9717
▁Iranian	-10.9717
▁Johnson	-10.9717
▁strip	-10.9717
▁loan	-10.9718
▁planetary	-10.9719
▁epic	-10.972
▁workplace	-10.9722
▁1956	-10.9723
▁1944	-10.9724
▁ppm	-10.9724
▁Night	-10.9726
▁suff	-10.9726
▁Join	-10.9727
▁guest	-10.9728
▁validity	-10.9728
▁tower	-10.9728
▁rectang	-10.9729
felt	-10.9729
▁rice	-10.9732
▁concluded	-10.9732
▁functionality	-10.9733
▁laid	-10.9733
▁dust	-10.9737
▁wider	-10.9739
▁mail	-10.974
chief	-10.9741
▁biograph	-10.9751
ontrol	-10.9753
▁decreas	-10.9762
▁minimiz	-10.9763
▁1000	-10.9766
gill	-10.9767
▁observe	-10.9767
▁Code	-10.9787
ecutive	-10.9789
▁prim	-10.9801
actual	-10.9841
▁remarkabl	-10.9851
▁horse	-10.9856
building	-10.986
week	-10.9863
burn	-10.9865
effective	-10.9866
body	-10.9889
olith	-10.9897
xia	-10.9901
who	-10.9929
,800	-10.9937
▁(18	-10.9958
infect	-10.9964
2,000	-10.9965
100%	-10.9966
ennis	-10.9995
▁Shan	-10.9998
▁Arch	-11.0017
3/	-11.0027
▁distribut	-11.0053
mega	-11.0083
actic	-11.0095
(1	-11.0137
▁frequent	-11.0252
▁assembl	-11.0269
▁except	-11.0288
▁fertiliz	-11.0291
▁renew	-11.0293
▁surge	-11.0297
▁prevalen	-11.0297
respons	-11.0297
▁phone	-11.0298
▁Green	-11.0299
▁temper	-11.0299
ł	-11.03
▁assassin	-11.03
structuring	-11.03
▁Arizona	-11.03
▁BRCA	-11.03
▁Chicago	-11.03
▁Convention	-11.03
▁Democrats	-11.03
▁Hemisphere	-11.03
▁Hospital	-11.03
▁Library	-11.03
▁Peninsula	-11.03
▁Profess	-11.03
▁Representatives	-11.03
▁Roosevelt	-11.03
▁Switzerland	-11.03
▁accommodation	-11.03
▁altogether	-11.03
▁channels	-11.03
▁corporation	-11.03
▁digestive	-11.03
▁fascinating	-11.03
▁fashion	-11.03
▁integral	-11.03
▁irritation	-11.03
▁jewelry	-11.03
▁pizza	-11.03
▁precursor	-11.03
▁principal	-11.03
▁satellite	-11.03
▁substitute	-11.03
▁substrate	-11.03
▁sulfide	-11.03
▁vinegar	-11.03
θ	-11.03
▁Croatia	-11.03
▁League	-11.03
▁Vienna	-11.03
▁composer	-11.03
▁husband	-11.03
▁isotope	-11.03
▁kernel	-11.03
▁reflex	-11.03
▁residue	-11.03
▁reversal	-11.03
▁underground	-11.03
▁village	-11.03
▁vowel	-11.03
▁Jupiter	-11.03
▁Murray	-11.03
▁boiling	-11.03
▁buried	-11.03
▁decree	-11.03
▁pivot	-11.03
▁1967	-11.03
▁Temple	-11.03
▁email	-11.03
▁thread	-11.03
▁1961	-11.03
▁plastic	-11.03
▁triangle	-11.03
violet	-11.03
▁culminat	-11.03
▁storm	-11.03
▁insulin	-11.03
▁prayer	-11.03
▁warrior	-11.03
▁false	-11.03
▁pump	-11.03
▁album	-11.03
▁Nigeria	-11.03
▁boost	-11.03
▁Walter	-11.03
▁crew	-11.03
▁mood	-11.03
etymolog	-11.03
▁Irish	-11.03
▁advice	-11.0301
▁Gauss	-11.0301
▁cervi	-11.0301
▁sinus	-11.0301
▁mining	-11.0301
▁Jones	-11.0301
▁foramen	-11.0302
▁pace	-11.0302
▁inventory	-11.0302
▁Milan	-11.0302
▁Original	-11.0303
▁Wilson	-11.0303
▁stance	-11.0304
▁hospitalization	-11.0305
efell	-11.0306
▁Bush	-11.0307
▁mature	-11.0307
▁reinforcement	-11.0307
ville	-11.0308
▁compression	-11.0309
rctic	-11.0309
▁1994	-11.031
7.1	-11.031
▁colonies	-11.0311
▁1912	-11.0313
▁organizer	-11.0315
▁engineer	-11.0315
▁dollars	-11.0315
▁missing	-11.0316
▁1978	-11.0317
▁carrier	-11.0318
cific	-11.0322
▁40%	-11.0326
Divid	-11.0331
▁seeds	-11.0336
▁yet	-11.0337
▁prescrib	-11.034
▁NO	-11.0346
▁Chile	-11.035
▁verb	-11.0351
ctually	-11.0357
actical	-11.0359
7.5	-11.0369
volution	-11.0369
▁Line	-11.0401
▁cow	-11.0408
▁ran	-11.042
▁Za	-11.0431
▁aging	-11.0436
▁suit	-11.044
▁tip	-11.0444
with	-11.0465
▁mammal	-11.0483
American	-11.0492
graduate	-11.051
▁Chai	-11.056
▁emphasiz	-11.0563
0.4	-11.0567
300	-11.0614
▁0.8	-11.0628
▁licens	-11.0636
+1	-11.0652
är	-11.0689
▁loc	-11.0706
Qu	-11.0708
▁grad	-11.0718
torial	-11.0732
licit	-11.0749
▁Maya	-11.0796
▁surround	-11.0818
armed	-11.0859
▁occup	-11.0872
▁motivat	-11.0873
ources	-11.0874
▁adequate	-11.0876
▁ultimate	-11.0877
▁consume	-11.0879
▁bodi	-11.0913
▁discriminat	-11.0914
▁intersect	-11.0915
▁Francis	-11.0922
eyond	-11.0922
famili	-11.0924
▁abandon	-11.0925
▁abolish	-11.0925
▁suspect	-11.0925
COVID	-11.0925
zheimer	-11.0925
≈	-11.0925
≤	-11.0925
▁Education	-11.0925
▁Freedom	-11.0925
▁Google	-11.0925
▁Parliament	-11.0925
▁Protestant	-11.0925
▁Province	-11.0925
▁Renaissance	-11.0925
▁Treaty	-11.0925
▁Venice	-11.0925
▁accessibility	-11.0925
▁algebraic	-11.0925
▁approximation	-11.0925
▁arrival	-11.0925
▁attitudes	-11.0925
▁disguise	-11.0925
▁flexible	-11.0925
▁logarithm	-11.0925
▁monsoon	-11.0925
▁multifaceted	-11.0925
▁palace	-11.0925
▁psycho	-11.0925
▁recipient	-11.0925
▁tectonic	-11.0925
▁tobacco	-11.0925
μ	-11.0925
▁Sweden	-11.0925
▁melanin	-11.0925
▁resonance	-11.0925
▁semantic	-11.0925
▁defamatio	-11.0925
ogenesis	-11.0925
▁Hispanic	-11.0925
▁sudden	-11.0925
▁thrive	-11.0925
▁biochemi	-11.0925
▁1993	-11.0925
▁1945	-11.0925
▁Danish	-11.0925
▁Finland	-11.0925
▁loyal	-11.0925
▁wedding	-11.0925
▁Queen	-11.0925
▁Queensland	-11.0925
▁basketball	-11.0925
▁morpholog	-11.0925
▁valley	-11.0925
▁deviation	-11.0925
▁purple	-11.0925
▁inhabit	-11.0925
▁DES	-11.0925
watts	-11.0925
▁conquer	-11.0925
▁wagons	-11.0925
▁stopped	-11.0925
▁Three	-11.0925
▁Tower	-11.0925
drew	-11.0925
▁juice	-11.0925
Natural	-11.0925
▁True	-11.0925
▁debut	-11.0925
▁commit	-11.0925
Arthur	-11.0925
▁Monte	-11.0926
▁earning	-11.0926
▁musicians	-11.0926
▁congruence	-11.0926
▁Brown	-11.0926
▁bilateral	-11.0926
▁Differen	-11.0926
▁tiny	-11.0926
▁stack	-11.0927
▁editorial	-11.0927
▁abnormalities	-11.0927
threatening	-11.0927
▁acetyl	-11.0927
▁modify	-11.0927
▁patch	-11.0927
▁yeast	-11.0927
▁intact	-11.0928
▁Francisco	-11.0928
▁muc	-11.0928
frog	-11.0928
▁programming	-11.0928
▁metres	-11.0928
▁Phase	-11.0928
▁correspondence	-11.0929
▁ventr	-11.0932
▁Thai	-11.0932
▁rejection	-11.0932
▁immigrants	-11.0933
▁packet	-11.0933
▁citr	-11.0933
▁1992	-11.0934
▁cutting	-11.0934
▁Seven	-11.0934
▁descent	-11.0935
▁1939	-11.0936
▁civilization	-11.0936
▁otherwise	-11.0936
▁Jung	-11.0936
▁1969	-11.0937
▁1976	-11.0939
▁centralized	-11.0941
▁modest	-11.0942
▁nationalist	-11.0947
▁highway	-11.0948
▁attraction	-11.0949
▁enforc	-11.095
▁bacterial	-11.0952
▁tear	-11.0952
▁2^	-11.0953
▁mainland	-11.0953
▁churches	-11.0955
▁unification	-11.0955
▁1900	-11.0956
▁Fall	-11.0958
pollinat	-11.0958
▁Road	-11.0959
minute	-11.0963
▁weaker	-11.0964
▁Land	-11.0982
onary	-11.0997
Best	-11.0998
▁catch	-11.1005
▁hepati	-11.1011
▁ram	-11.1014
▁0.3	-11.1021
▁occasional	-11.1041
▁opt	-11.105
colo	-11.1064
▁observer	-11.1069
stored	-11.1105
▁rough	-11.1133
▁citizen	-11.1147
▁vessel	-11.1151
space	-11.1157
What	-11.1159
multi	-11.1159
political	-11.116
carbon	-11.1161
addition	-11.1162
half	-11.1165
▁restriction	-11.1181
,000,000	-11.1243
▁auditor	-11.1246
▁0.9	-11.127
FP	-11.1279
kept	-11.1309
9,000	-11.1316
sheet	-11.1368
▁advanc	-11.1388
▁remov	-11.1392
▁$100	-11.1395
▁sav	-11.1396
▁captur	-11.1406
▁0.2	-11.1432
prone	-11.1479
▁discover	-11.149
▁substanti	-11.1491
▁nerv	-11.1498
▁barr	-11.151
▁choos	-11.153
judge	-11.1573
▁posit	-11.1574
petitive	-11.159
▁intent	-11.1591
▁negotiat	-11.1591
▁reorganiz	-11.1591
ttorney	-11.1591
ç	-11.1591
ı	-11.1591
▁Abraham	-11.1591
▁Buddhism	-11.1591
▁Charlotte	-11.1591
▁Columbia	-11.1591
▁Division	-11.1591
▁Douglas	-11.1591
▁Eurasia	-11.1591
▁Governor	-11.1591
▁Hamilton	-11.1591
▁Netherlands	-11.1591
▁Scotland	-11.1591
▁Treasur	-11.1591
▁abolition	-11.1591
▁accumulation	-11.1591
▁advocacy	-11.1591
▁agencies	-11.1591
▁albinism	-11.1591
▁altitude	-11.1591
▁bioavailability	-11.1591
▁bronze	-11.1591
▁catastrophic	-11.1591
▁convenience	-11.1591
▁counsel	-11.1591
▁cycling	-11.1591
▁discourse	-11.1591
▁electromagneti	-11.1591
▁emphasis	-11.1591
▁entrance	-11.1591
▁equilibrium	-11.1591
▁esophage	-11.1591
▁exploring	-11.1591
▁fluctuat	-11.1591
▁interconnected	-11.1591
▁ligament	-11.1591
▁metformin	-11.1591
▁pilgrimage	-11.1591
▁pursuit	-11.1591
▁solubility	-11.1591
▁splicing	-11.1591
▁stomach	-11.1591
▁susceptib	-11.1591
▁template	-11.1591
▁temporarily	-11.1591
▁terrorist	-11.1591
▁verdict	-11.1591
π	-11.1591
▁Studies	-11.1591
▁articulat	-11.1591
▁beneficiar	-11.1591
▁enacted	-11.1591
▁hazard	-11.1591
▁ordination	-11.1591
▁ratification	-11.1591
▁throat	-11.1591
▁Alfred	-11.1591
▁Clinton	-11.1591
▁Partner	-11.1591
▁photograph	-11.1591
▁Houston	-11.1591
▁cessation	-11.1591
▁deformation	-11.1591
▁shipping	-11.1591
▁1989	-11.1591
▁eleven	-11.1591
▁Kenya	-11.1591
▁shock	-11.1591
▁Major	-11.1591
▁penetrat	-11.1591
▁orientation	-11.1592
Hebrew	-11.1592
▁pronounced	-11.1592
▁plural	-11.1592
▁Delta	-11.1592
Family	-11.1592
▁sensation	-11.1592
▁Club	-11.1592
▁Winter	-11.1592
▁absent	-11.1592
▁patron	-11.1592
▁Argentin	-11.1592
▁byproduct	-11.1592
▁Dominican	-11.1592
affiliat	-11.1592
▁ancestr	-11.1592
▁lipid	-11.1592
▁terrain	-11.1592
additive	-11.1592
▁merit	-11.1592
consuming	-11.1592
omorph	-11.1592
▁marry	-11.1592
▁extraordinary	-11.1592
reliance	-11.1592
▁Valley	-11.1592
▁sail	-11.1592
▁salad	-11.1593
caudat	-11.1593
▁cooperative	-11.1593
▁clause	-11.1593
▁textbook	-11.1593
▁hypothesis	-11.1593
▁subsid	-11.1594
▁Andrew	-11.1594
▁Insight	-11.1594
▁commutative	-11.1594
▁spacecraft	-11.1594
▁signature	-11.1594
▁baseball	-11.1595
▁wives	-11.1595
▁dosage	-11.1595
▁elite	-11.1595
▁provincial	-11.1595
▁collaborative	-11.1596
▁reviv	-11.1596
▁tetra	-11.1596
▁southeast	-11.1597
▁coding	-11.1598
▁magic	-11.1598
▁logo	-11.1599
robus	-11.1599
▁oversee	-11.1599
▁relocation	-11.16
▁1962	-11.16
▁airway	-11.16
▁liberation	-11.1601
▁Haiti	-11.1602
▁alkali	-11.1602
▁relief	-11.1603
▁intersection	-11.1603
▁Medina	-11.1605
▁raw	-11.1605
▁1985	-11.1607
▁conform	-11.1607
▁fame	-11.1608
▁Area	-11.1608
omega	-11.161
▁expectation	-11.161
▁Just	-11.161
▁racing	-11.1611
▁momentum	-11.1612
▁60%	-11.1613
▁1860	-11.1618
▁Final	-11.1618
▁Saud	-11.1623
▁safer	-11.1625
▁900	-11.163
▁Plato	-11.1639
▁distan	-11.1641
Full	-11.1643
▁3,000	-11.1643
▁Geo	-11.166
flux	-11.1669
▁mine	-11.1743
▁Chang	-11.1828
▁Reform	-11.1829
▁symptom	-11.1857
ittle	-11.186
cycle	-11.1864
▁soldier	-11.1867
profit	-11.1867
Problem	-11.1868
typical	-11.1871
white	-11.1871
version	-11.1875
meaning	-11.1876
about	-11.1883
cci	-11.1889
value	-11.19
7,000	-11.1913
▁Supp	-11.1924
voted	-11.1934
continuation	-11.1974
(1/	-11.198
▁Malay	-11.2002
just	-11.2012
ographic	-11.204
characterization	-11.2092
▁originat	-11.2103
Tech	-11.2108
rgic	-11.2111
ozo	-11.2114
▁gener	-11.2117
guy	-11.2187
▁wait	-11.22
▁pharmac	-11.2226
▁lemon	-11.2248
▁usual	-11.2265
▁sensor	-11.2276
▁nuance	-11.228
dollar	-11.2289
▁migrat	-11.2295
medial	-11.2303
▁converg	-11.2305
ρ	-11.2306
▁embrac	-11.2306
▁fertility	-11.2306
▁persecution	-11.2306
▁republic	-11.2306
adjacent	-11.2306
filtration	-11.2306
ommonwealth	-11.2306
′	-11.2306
▁Belgium	-11.2306
▁Broadway	-11.2306
▁Celsius	-11.2306
▁Government	-11.2306
▁Gujarat	-11.2306
▁Jordan	-11.2306
▁Memorial	-11.2306
▁Metropolitan	-11.2306
▁Structure	-11.2306
▁```	-11.2306
▁analyses	-11.2306
▁anticipate	-11.2306
▁authoritative	-11.2306
▁baptism	-11.2306
▁cinnamon	-11.2306
▁contraception	-11.2306
▁cooperation	-11.2306
▁declining	-11.2306
▁democracy	-11.2306
▁diffusion	-11.2306
▁disagree	-11.2306
▁encoding	-11.2306
▁estrogen	-11.2306
▁excellent	-11.2306
▁exhaust	-11.2306
▁homosexual	-11.2306
▁immense	-11.2306
▁locomotive	-11.2306
▁maturity	-11.2306
▁mercury	-11.2306
▁petition	-11.2306
▁phonological	-11.2306
▁privacy	-11.2306
▁prosecution	-11.2306
▁relevance	-11.2306
▁robbery	-11.2306
▁satisfie	-11.2306
▁subcontinent	-11.2306
▁uncommon	-11.2306
▁zygomatic	-11.2306
lphabet	-11.2306
wireless	-11.2306
▁Solomon	-11.2306
▁carotid	-11.2306
▁diagram	-11.2306
▁pearl	-11.2306
▁tariff	-11.2306
▁Labour	-11.2306
▁Turner	-11.2306
▁ancestor	-11.2306
▁diameter	-11.2306
▁biggest	-11.2306
▁1987	-11.2306
▁Formula	-11.2306
▁Zhao	-11.2306
▁fantas	-11.2306
▁1789	-11.2306
▁Minister	-11.2306
▁dystroph	-11.2306
▁nursing	-11.2306
▁1947	-11.2306
▁1958	-11.2306
▁unilateral	-11.2306
▁polygon	-11.2306
▁1941	-11.2306
▁refused	-11.2306
▁scheme	-11.2306
▁crowd	-11.2306
▁BMI	-11.2306
▁saint	-11.2306
▁drum	-11.2306
▁inquiry	-11.2306
▁afford	-11.2306
▁dorsal	-11.2306
▁pathogens	-11.2306
▁whale	-11.2306
▁Index	-11.2306
▁barrels	-11.2306
▁Guinea	-11.2306
▁libert	-11.2306
▁breach	-11.2306
▁pregnant	-11.2306
▁creatures	-11.2306
▁lifespan	-11.2307
▁guilt	-11.2307
▁antivir	-11.2307
▁Chief	-11.2307
▁SDS	-11.2307
▁tomato	-11.2307
▁loose	-11.2308
▁hardware	-11.2308
。	-11.2308
▁drainage	-11.2308
▁populated	-11.2308
▁warfare	-11.2309
▁Prince	-11.2309
▁phonetic	-11.2309
▁Northeast	-11.2309
▁drain	-11.2309
▁observance	-11.231
▁stapl	-11.231
▁ballot	-11.2311
▁flush	-11.2311
▁orange	-11.2311
▁savings	-11.2312
▁fitting	-11.2313
0.75	-11.2314
▁Morocco	-11.2314
▁Simon	-11.2314
▁renewable	-11.2314
▁authenticity	-11.2316
▁mytholog	-11.2316
▁1957	-11.2316
▁1908	-11.2317
▁selective	-11.2318
edema	-11.2319
▁justification	-11.2319
▁1911	-11.2319
▁resignation	-11.232
▁lineage	-11.2321
▁Poland	-11.2324
210	-11.2324
▁quantify	-11.2326
▁Jim	-11.2326
immer	-11.2326
▁Fame	-11.2327
Farm	-11.2328
▁denote	-11.2328
▁Jean	-11.2332
anchor	-11.2349
ancy	-11.235
▁prize	-11.2351
▁ease	-11.2356
hoot	-11.2365
▁Dai	-11.2409
duced	-11.2467
wake	-11.2484
VAT	-11.2493
complete	-11.2506
(2)	-11.2512
degenerati	-11.2526
▁oz	-11.2545
▁zu	-11.255
6,000	-11.2562
rites	-11.2586
▁salar	-11.2615
▁audio	-11.2633
β	-11.2636
father	-11.2637
found	-11.2637
▁kilometer	-11.2638
frequency	-11.2641
first	-11.2643
▁organism	-11.2644
factor	-11.265
▁compress	-11.2664
7.0	-11.2745
cientists	-11.2747
▁Mongol	-11.2801
▁redistribut	-11.281
1.2	-11.2828
guided	-11.2852
▁psychiatr	-11.2876
▁influenc	-11.2913
▁basin	-11.2916
▁dimension	-11.2981
▁stretch	-11.2994
▁vertebra	-11.3002
textual	-11.3041
▁arrive	-11.3042
▁circu	-11.3055
wise	-11.3062
▁liberat	-11.3064
▁inflammat	-11.3064
terrorism	-11.3065
valuation	-11.3073
▁descend	-11.3075
▁pronoun	-11.3075
_4">	-11.3075
_5">	-11.3075
ô	-11.3075
▁photosynthe	-11.3075
balancing	-11.3075
harmaceutical	-11.3075
hemoglobin	-11.3075
segregation	-11.3075
â	-11.3075
ã	-11.3075
λ	-11.3075
▁Aztec	-11.3075
▁Florida	-11.3075
▁Intelligence	-11.3075
▁Jersey	-11.3075
▁Multipl	-11.3075
▁Protocol	-11.3075
▁Summer	-11.3075
▁allegations	-11.3075
▁antibodies	-11.3075
▁applicable	-11.3075
▁cabbage	-11.3075
▁collision	-11.3075
▁competitors	-11.3075
▁confession	-11.3075
▁convenient	-11.3075
▁covariance	-11.3075
▁degradation	-11.3075
▁delirium	-11.3075
▁disadvantage	-11.3075
▁disparity	-11.3075
▁divorce	-11.3075
▁expenditure	-11.3075
▁explosion	-11.3075
▁feasible	-11.3075
▁frozen	-11.3075
▁genotype	-11.3075
▁legislature	-11.3075
▁microscope	-11.3075
▁mirror	-11.3075
▁persuasion	-11.3075
▁phosphorylat	-11.3075
▁reindeer	-11.3075
▁rhetoric	-11.3075
▁specimens	-11.3075
▁stimulus	-11.3075
▁struck	-11.3075
▁suspend	-11.3075
▁swimming	-11.3075
▁synthase	-11.3075
▁tyrosine	-11.3075
▁voyage	-11.3075
▁wolves	-11.3075
▁Alabama	-11.3075
▁Historical	-11.3075
▁Libya	-11.3075
▁Prague	-11.3075
▁Tunisia	-11.3075
▁casual	-11.3075
▁consonant	-11.3075
▁divisor	-11.3075
▁durability	-11.3075
▁metaphor	-11.3075
▁rebound	-11.3075
▁Hitler	-11.3075
▁Texas	-11.3075
▁amazing	-11.3075
▁lambda	-11.3075
▁liberal	-11.3075
▁mmHg	-11.3075
▁Panama	-11.3075
▁burrow	-11.3075
▁elliptic	-11.3075
▁fault	-11.3075
▁lawsuit	-11.3075
▁senior	-11.3075
▁straight	-11.3075
▁studio	-11.3075
▁kinetic	-11.3075
▁refusal	-11.3075
▁Witness	-11.3075
▁Timur	-11.3075
▁nebula	-11.3075
▁Navy	-11.3075
▁uprising	-11.3075
▁1896	-11.3075
▁Reagan	-11.3075
▁Field	-11.3075
▁announcement	-11.3075
▁capacitors	-11.3075
▁twenty	-11.3075
▁CBT	-11.3075
tangible	-11.3075
▁Legion	-11.3075
▁firearm	-11.3075
▁Edward	-11.3075
Ancient	-11.3075
▁clothing	-11.3075
▁Alaska	-11.3075
▁SEC	-11.3075
▁geography	-11.3075
▁essence	-11.3075
▁repeal	-11.3075
▁tolerance	-11.3075
▁compact	-11.3075
▁disabled	-11.3075
Complete	-11.3075
▁tactics	-11.3075
▁contest	-11.3075
▁prioritize	-11.3075
▁Small	-11.3075
▁alternat	-11.3075
▁concert	-11.3076
▁odd	-11.3076
▁Legal	-11.3076
▁crown	-11.3076
▁capillar	-11.3076
▁actress	-11.3076
▁tonnes	-11.3076
▁banned	-11.3076
strand	-11.3076
▁hadith	-11.3076
▁offset	-11.3076
▁Secretary	-11.3076
▁cardinal	-11.3077
▁embryolog	-11.3077
▁Way	-11.3077
▁mobility	-11.3077
▁terminate	-11.3077
▁demonstrations	-11.3077
▁spice	-11.3077
▁Nepal	-11.3078
▁Analysis	-11.3078
▁comedy	-11.3078
▁radical	-11.3078
▁friendship	-11.3079
Pierre	-11.3079
▁dough	-11.3079
▁mandate	-11.3079
▁connectivity	-11.308
▁journalism	-11.308
▁else	-11.308
▁cues	-11.308
▁bloodstream	-11.308
polarized	-11.3081
▁replication	-11.3081
▁latter	-11.3081
▁10−	-11.3082
▁Guard	-11.3082
▁foster	-11.3082
▁Order	-11.3083
▁manner	-11.3083
▁olive	-11.3083
▁truck	-11.3083
▁Board	-11.3085
▁poetry	-11.3085
▁scholarship	-11.3085
▁deterministic	-11.3086
▁palmit	-11.3086
▁Corp	-11.3086
▁1936	-11.3087
▁1917	-11.3088
symptomatic	-11.3088
▁candle	-11.3089
▁1928	-11.3091
Scale	-11.3092
frying	-11.3092
▁rider	-11.3098
retro	-11.3099
McC	-11.3101
▁vagu	-11.3109
psi	-11.311
▁preci	-11.3117
gged	-11.3131
▁senat	-11.3136
stella	-11.3139
▁charg	-11.3163
lingu	-11.3176
▁recurren	-11.3196
ample	-11.3199
paired	-11.3269
▁leverag	-11.3326
bearing	-11.3365
▁expense	-11.3467
hydrogen	-11.3471
III	-11.3472
sequential	-11.3473
sexual	-11.3475
cultural	-11.3475
original	-11.3475
Indigenous	-11.3503
motor	-11.3505
▁Osca	-11.3631
▁diagnos	-11.3638
compete	-11.3685
2.8	-11.3759
Why	-11.3771
▁zoo	-11.378
▁broke	-11.3874
▁identifie	-11.3875
▁profession	-11.3875
▁ioniz	-11.3885
statistic	-11.3888
▁collaborat	-11.3892
▁cultivat	-11.3897
▁educat	-11.3898
▁compute	-11.3899
è	-11.3908
▁discount	-11.3908
▁goddess	-11.3908
▁moisture	-11.3908
▁potato	-11.3908
▁resembl	-11.3908
▁rhythm	-11.3908
François	-11.3908
coagulation	-11.3908
discontinue	-11.3908
maximiz	-11.3908
misunderstanding	-11.3908
mniocentesis	-11.3908
nucleotide	-11.3908
ynagogue	-11.3908
ạ	-11.3908
•	-11.3908
▁Alcohol	-11.3908
▁Alexander	-11.3908
▁Baltimore	-11.3908
▁Bolivia	-11.3908
▁Cambridge	-11.3908
▁District	-11.3908
▁Dzungar	-11.3908
▁Fahrenheit	-11.3908
▁Hawaii	-11.3908
▁Internet	-11.3908
▁Istanbul	-11.3908
▁Kennedy	-11.3908
▁Massachusetts	-11.3908
▁Neanderthal	-11.3908
▁Oxford	-11.3908
▁Population	-11.3908
▁adventure	-11.3908
▁apoptosis	-11.3908
▁clarification	-11.3908
▁compatibility	-11.3908
▁constellation	-11.3908
▁corpus	-11.3908
▁cricket	-11.3908
▁cryptographic	-11.3908
▁devotion	-11.3908
▁dysfunction	-11.3908
▁eclipse	-11.3908
▁eligible	-11.3908
▁encryption	-11.3908
▁excavation	-11.3908
▁exploit	-11.3908
▁imbalance	-11.3908
▁installed	-11.3908
▁irregular	-11.3908
▁jacket	-11.3908
▁luxur	-11.3908
▁modalities	-11.3908
▁offensive	-11.3908
▁partitioning	-11.3908
▁phenyl	-11.3908
▁physiology	-11.3908
▁pursuing	-11.3908
▁scheduling	-11.3908
▁statutory	-11.3908
▁stood	-11.3908
▁suppression	-11.3908
▁surrender	-11.3908
▁surveillance	-11.3908
▁telomerase	-11.3908
▁universities	-11.3908
▁unsuccessful	-11.3908
▁uranium	-11.3908
▁Energy	-11.3908
▁Review	-11.3908
▁Stevens	-11.3908
▁aspiration	-11.3908
▁confrontation	-11.3908
▁rigid	-11.3908
▁scanning	-11.3908
▁Angeles	-11.3908
▁Context	-11.3908
▁Jacob	-11.3908
▁Palace	-11.3908
▁coconut	-11.3908
▁mosaic	-11.3908
▁subtree	-11.3908
Military	-11.3908
▁Bureau	-11.3908
▁Clause	-11.3908
▁Discover	-11.3908
▁Railway	-11.3908
▁biomass	-11.3908
▁plaque	-11.3908
▁Daniel	-11.3908
▁Medicare	-11.3908
▁bowel	-11.3908
▁sovereignty	-11.3908
▁Madrid	-11.3908
▁disaster	-11.3908
▁irradia	-11.3908
▁revised	-11.3908
▁1955	-11.3908
▁1959	-11.3908
▁crisp	-11.3908
▁untreated	-11.3908
▁1924	-11.3908
▁pretty	-11.3908
▁capacities	-11.3908
▁Athens	-11.3908
▁combinatorics	-11.3908
▁Strait	-11.3908
▁amniot	-11.3908
▁wrapp	-11.3908
▁BBC	-11.3908
▁shooting	-11.3909
sponsor	-11.3909
▁overturn	-11.3909
hCG	-11.3909
▁elsewhere	-11.3909
▁nitrogen	-11.3909
▁Good	-11.3909
▁carving	-11.3909
▁iterative	-11.3909
▁mapping	-11.3909
▁horns	-11.3909
▁Open	-11.3909
▁racism	-11.3909
▁negotiations	-11.3909
▁override	-11.3909
▁kilo	-11.3909
▁Crete	-11.3909
▁angina	-11.391
▁Operation	-11.391
▁Spring	-11.391
▁Busan	-11.391
▁marsh	-11.391
▁concurrent	-11.391
▁Journ	-11.391
▁Morgan	-11.391
▁Solar	-11.3911
▁Water	-11.3911
▁oversight	-11.3911
▁Sumer	-11.3912
▁archaeologists	-11.3912
▁Holland	-11.3912
▁sixteen	-11.3912
▁Fiction	-11.3913
▁copper	-11.3914
▁anything	-11.3914
▁diode	-11.3914
▁rash	-11.3916
▁Singh	-11.3916
▁cement	-11.3916
▁implies	-11.3917
▁electrolyt	-11.3921
▁boss	-11.3921
▁(201	-11.3921
▁hall	-11.3922
▁Liao	-11.3934
Libert	-11.3941
dentify	-11.397
▁heredit	-11.3989
▁Luci	-11.4023
▁streamlin	-11.4049
microbi	-11.4053
Unit	-11.4099
7.2	-11.4108
▁holograph	-11.417
4.7	-11.4202
▁illustrat	-11.4214
0.6	-11.4338
square	-11.4363
degree	-11.438
front	-11.4382
release	-11.4383
lived	-11.4385
from	-11.4387
determin	-11.4387
▁styl	-11.452
hundredth	-11.4539
▁(193	-11.4586
▁occasion	-11.4648
▁enzym	-11.4681
▁topograph	-11.4694
8.8	-11.4697
▁reject	-11.4737
plane	-11.4739
▁agree	-11.4778
▁Armenia	-11.4779
▁conclude	-11.4784
▁perceive	-11.4784
▁withdraw	-11.479
witch	-11.4799
▁innovati	-11.4806
▁relocat	-11.4806
▁editor	-11.4815
ibn	-11.4815
riminal	-11.4817
trophic	-11.4817
spontaneous	-11.4817
▁amyloid	-11.4817
▁ecclesi	-11.4817
Euclid	-11.4817
gastrointestinal	-11.4817
sympath	-11.4817
É	-11.4817
√	-11.4817
▁Antarctic	-11.4817
▁Apollo	-11.4817
▁Confederation	-11.4817
▁Constantinople	-11.4817
▁Development	-11.4817
▁Experience	-11.4817
▁Geneva	-11.4817
▁Gorbachev	-11.4817
▁Gülen	-11.4817
▁Insurance	-11.4817
▁Language	-11.4817
▁Liverpool	-11.4817
▁Manhattan	-11.4817
▁Mecca	-11.4817
▁Square	-11.4817
▁Tennessee	-11.4817
▁Theodosi	-11.4817
▁Tibet	-11.4817
▁Ukraine	-11.4817
▁Uzbek	-11.4817
▁advertisement	-11.4817
▁ambiguous	-11.4817
▁ambition	-11.4817
▁archipelago	-11.4817
▁breastfeeding	-11.4817
▁calcitonin	-11.4817
▁carcinogen	-11.4817
▁combustion	-11.4817
▁cuneiform	-11.4817
▁dehydrat	-11.4817
▁deployed	-11.4817
▁dilution	-11.4817
▁diminish	-11.4817
▁eligibility	-11.4817
▁enormous	-11.4817
▁enterprises	-11.4817
▁gonadotrop	-11.4817
▁hectares	-11.4817
▁hypothyroidism	-11.4817
▁irreversible	-11.4817
▁jazz	-11.4817
▁nationwide	-11.4817
▁pediatric	-11.4817
▁peripher	-11.4817
▁pneumonia	-11.4817
▁predecessor	-11.4817
▁quotient	-11.4817
▁relativity	-11.4817
▁robotic	-11.4817
▁shopping	-11.4817
▁simplify	-11.4817
▁southwest	-11.4817
▁spectral	-11.4817
▁stimuli	-11.4817
▁synthesiz	-11.4817
▁twelve	-11.4817
▁unpredictable	-11.4817
▁vaccination	-11.4817
▁vacuum	-11.4817
▁vertex	-11.4817
▁wisdom	-11.4817
Buddha	-11.4817
vegetable	-11.4817
ʼ	-11.4817
▁Chamber	-11.4817
▁Mughal	-11.4817
▁NASA	-11.4817
▁Reserve	-11.4817
▁companion	-11.4817
▁conversation	-11.4817
▁epitheli	-11.4817
▁evident	-11.4817
▁ounces	-11.4817
▁railroad	-11.4817
▁memorable	-11.4817
▁thrust	-11.4817
zygot	-11.4817
▁Fuji	-11.4817
▁hexagon	-11.4817
▁nicotin	-11.4817
▁pinpoint	-11.4817
synerg	-11.4817
▁encode	-11.4817
▁restoration	-11.4817
▁uterus	-11.4817
▁Movement	-11.4817
▁1935	-11.4817
▁convex	-11.4817
▁throne	-11.4817
▁wolf	-11.4817
▁vapor	-11.4817
▁Kazakhstan	-11.4817
▁compliance	-11.4817
landlord	-11.4817
▁harass	-11.4817
▁nominal	-11.4817
▁1880	-11.4817
▁looms	-11.4817
▁Phoeni	-11.4817
▁uncover	-11.4817
▁zoning	-11.4817
▁GPS	-11.4818
▁Norman	-11.4818
力	-11.4818
▁Suez	-11.4818
▁spark	-11.4818
▁Power	-11.4818
▁Vatican	-11.4818
▁1871	-11.4818
▁Anglo	-11.4818
▁invalid	-11.4818
▁animation	-11.4818
bishop	-11.4818
▁scapula	-11.4818
invasive	-11.4818
capacit	-11.4818
▁Nanak	-11.4818
▁fibrosis	-11.4818
▁Cycl	-11.4818
▁feedback	-11.4818
▁wildlife	-11.4818
▁torture	-11.4818
▁Centre	-11.4818
▁football	-11.4819
▁vibration	-11.4819
Children	-11.4819
▁neighborhood	-11.4819
Garden	-11.4819
▁felon	-11.4819
ococc	-11.482
▁denim	-11.482
▁jaw	-11.482
▁chips	-11.482
▁stating	-11.482
▁periodont	-11.482
▁sustainability	-11.482
overlapping	-11.482
▁stall	-11.482
▁disclosure	-11.482
▁riot	-11.4821
▁array	-11.4821
▁adaptability	-11.4821
ermanent	-11.4821
▁transverse	-11.4821
▁galact	-11.4821
▁trail	-11.4821
Muay	-11.4822
▁cremati	-11.4822
▁osmo	-11.4822
▁vials	-11.4823
▁cache	-11.4823
Two	-11.4824
Wien	-11.4824
▁inspect	-11.4825
▁excel	-11.4827
Saxon	-11.4833
▁molt	-11.484
▁Sicil	-11.4842
ragic	-11.4848
▁Voi	-11.4853
▁slid	-11.486
▁Senat	-11.486
▁affin	-11.4861
▁pleura	-11.4909
linkage	-11.4912
▁compris	-11.492
Auto	-11.4966
constrain	-11.4992
ertz	-11.4995
Local	-11.5112
3.2	-11.5173
Product	-11.5224
chiku	-11.5253
endency	-11.5316
▁methylat	-11.5321
trained	-11.534
▁audit	-11.5342
special	-11.538
controlled	-11.538
protein	-11.5381
#	-11.5382
family	-11.5384
worth	-11.5385
error	-11.5443
▁Creat	-11.5457
▁engag	-11.5679
▁rotat	-11.5748
avor	-11.5762
▁confident	-11.5769
▁equivalen	-11.5777
▁spoke	-11.5779
▁computation	-11.5779
▁fract	-11.578
▁AMP	-11.5796
etween	-11.5814
▁danger	-11.5814
▁diploma	-11.5815
ecause	-11.5816
▁volcan	-11.5817
trophy	-11.5817
ß	-11.5817
▁pathophysiolog	-11.5817
▁proficien	-11.5817
Campaign	-11.5817
globin	-11.5817
phenytoin	-11.5817
phosphatase	-11.5817
sacrament	-11.5817
thalassemia	-11.5817
unconstitutional	-11.5817
ú	-11.5817
ε	-11.5817
σ	-11.5817
⁄	-11.5817
▁Amazon	-11.5817
▁Antonio	-11.5817
▁Cabinet	-11.5817
▁Circuit	-11.5817
▁Einstein	-11.5817
▁Essential	-11.5817
▁Exchange	-11.5817
▁GERD	-11.5817
▁Hussein	-11.5817
▁Jerusalem	-11.5817
▁Judaism	-11.5817
▁Margaret	-11.5817
▁Mercury	-11.5817
▁Missouri	-11.5817
▁Omicron	-11.5817
▁Slovene	-11.5817
▁Through	-11.5817
▁acclaim	-11.5817
▁analysts	-11.5817
▁annexation	-11.5817
▁breakthrough	-11.5817
▁cabinet	-11.5817
▁chairman	-11.5817
▁clinician	-11.5817
▁coffee	-11.5817
▁collagen	-11.5817
▁comprehension	-11.5817
▁constituent	-11.5817
▁dehydrogenase	-11.5817
▁dialogue	-11.5817
▁diamond	-11.5817
▁disarmament	-11.5817
▁doubling	-11.5817
▁elephant	-11.5817
▁embedd	-11.5817
▁eruptions	-11.5817
▁grammatical	-11.5817
▁gymnast	-11.5817
▁macroeconomic	-11.5817
▁mathematician	-11.5817
▁migrant	-11.5817
▁milligrams	-11.5817
▁mourning	-11.5817
▁navigating	-11.5817
▁negligence	-11.5817
▁nutmeg	-11.5817
▁obstacle	-11.5817
▁orthogonal	-11.5817
▁peasant	-11.5817
▁phosphorus	-11.5817
▁phrasing	-11.5817
▁rainforest	-11.5817
▁reciprocal	-11.5817
▁salinity	-11.5817
▁sentencing	-11.5817
▁serfdom	-11.5817
▁steep	-11.5817
▁striatum	-11.5817
▁testimony	-11.5817
▁tournament	-11.5817
▁transcription	-11.5817
▁volleyball	-11.5817
▁vulnerability	-11.5817
Finnish	-11.5817
disjoint	-11.5817
▁Alawite	-11.5817
▁Heritage	-11.5817
▁bathroom	-11.5817
▁browser	-11.5817
▁essay	-11.5817
▁nickel	-11.5817
▁northwest	-11.5817
▁rehabilitat	-11.5817
▁retention	-11.5817
isabilities	-11.5817
▁eukaryot	-11.5817
▁layout	-11.5817
▁league	-11.5817
▁volatil	-11.5817
▁Commerc	-11.5817
▁conserve	-11.5817
▁enemy	-11.5817
▁thirty	-11.5817
▁Munich	-11.5817
▁compell	-11.5817
▁optimize	-11.5817
▁deportation	-11.5817
▁Build	-11.5817
▁balloon	-11.5817
▁consort	-11.5817
▁siege	-11.5817
▁shelter	-11.5817
▁staging	-11.5817
▁Poems	-11.5817
▁solute	-11.5817
▁1946	-11.5817
▁outdoor	-11.5817
▁1889	-11.5817
▁resort	-11.5817
submarine	-11.5817
▁descendants	-11.5818
▁sanction	-11.5818
▁Stock	-11.5818
▁thromb	-11.5818
▁weakened	-11.5818
▁Broca	-11.5818
▁Castle	-11.5818
▁pilot	-11.5818
▁Zhou	-11.5818
▁doubt	-11.5818
▁algae	-11.5818
▁hyperplane	-11.5818
▁Coast	-11.5818
▁Smith	-11.5818
▁convey	-11.5818
▁Dark	-11.5818
▁ulcer	-11.5818
▁transcend	-11.5818
▁talent	-11.5818
▁fleas	-11.5818
▁gradient	-11.5818
▁expel	-11.5818
▁gift	-11.5818
▁bypass	-11.5818
▁stereo	-11.5818
▁assay	-11.5818
▁sunlight	-11.5819
intensive	-11.5819
▁Jesus	-11.5819
▁conceiv	-11.5819
▁vagina	-11.5819
▁anthem	-11.5819
PCR	-11.5819
▁fortification	-11.5819
▁convergen	-11.5819
stration	-11.5819
▁Heart	-11.5819
indices	-11.5819
▁visa	-11.582
▁polyps	-11.582
▁condens	-11.582
ECT	-11.582
ndangered	-11.582
▁glacier	-11.582
▁Harris	-11.582
▁shut	-11.5821
▁Ivan	-11.5823
prostheti	-11.5823
▁selen	-11.5825
ersuasi	-11.5825
▁resume	-11.5827
Carbon	-11.5828
▁Regula	-11.5829
▁contingen	-11.5835
▁ultra	-11.5835
operative	-11.584
hypersensitivity	-11.5845
clamp	-11.592
▁permitt	-11.5931
artisan	-11.5949
▁coexist	-11.5955
Rafa	-11.5995
Marie	-11.6005
▁swap	-11.6043
wheel	-11.6136
solved	-11.6181
▁aqua	-11.6193
▁separat	-11.6316
▁pharmacolog	-11.6416
negative	-11.6483
efficient	-11.6488
derived	-11.6489
General	-11.6492
suitable	-11.6492
membrane	-11.6492
temperature	-11.6494
major	-11.6496
▁recurr	-11.6603
dministrative	-11.6792
flute	-11.6828
damag	-11.6838
▁concentrat	-11.6849
▁appoint	-11.6855
▁administer	-11.686
▁constitution	-11.689
cientific	-11.691
ducted	-11.6921
rovincial	-11.6922
▁Univers	-11.6924
▁hyaluron	-11.6925
▁cricothyro	-11.6925
arynge	-11.6927
ν	-11.6928
▁anastomo	-11.6928
φ	-11.6928
▁Confederate	-11.6928
▁discrepanc	-11.6928
▁hippocamp	-11.6928
▁latitude	-11.6928
▁octopus	-11.6928
▁pterygo	-11.6928
▁trouble	-11.6928
fragmentation	-11.6928
lecommunications	-11.6928
ulfonylureas	-11.6928
ʿ	-11.6928
▁Administration	-11.6928
▁Ahmad	-11.6928
▁Bahadur	-11.6928
▁Belfast	-11.6928
▁Coalition	-11.6928
▁Columbus	-11.6928
▁Community	-11.6928
▁Corvette	-11.6928
▁Country	-11.6928
▁Disease	-11.6928
▁Doctor	-11.6928
▁Illinois	-11.6928
▁Individual	-11.6928
▁Lithuania	-11.6928
▁Member	-11.6928
▁Nanjing	-11.6928
▁Nicholas	-11.6928
▁Pearson	-11.6928
▁Pittsburgh	-11.6928
▁Samaritan	-11.6928
▁Sanskrit	-11.6928
▁Selassie	-11.6928
▁Slovenia	-11.6928
▁Stephen	-11.6928
▁Sufyan	-11.6928
▁Territory	-11.6928
▁Wellesley	-11.6928
▁Windows	-11.6928
▁acyclic	-11.6928
▁affirm	-11.6928
▁anonymous	-11.6928
▁bathtub	-11.6928
▁bayonet	-11.6928
▁biofilm	-11.6928
▁cautious	-11.6928
▁certification	-11.6928
▁cipher	-11.6928
▁cleavage	-11.6928
▁compulsory	-11.6928
▁confederation	-11.6928
▁cultivar	-11.6928
▁default	-11.6928
▁denominator	-11.6928
▁dissociat	-11.6928
▁electrocution	-11.6928
▁emigrati	-11.6928
▁entropy	-11.6928
▁epidemic	-11.6928
▁hallucinations	-11.6928
▁happiness	-11.6928
▁hemopexin	-11.6928
▁inadequate	-11.6928
▁leukemia	-11.6928
▁litigation	-11.6928
▁mRNA	-11.6928
▁macroscopic	-11.6928
▁matrices	-11.6928
▁microorganisms	-11.6928
▁microwave	-11.6928
▁militia	-11.6928
▁misconception	-11.6928
▁obscur	-11.6928
▁overwhelming	-11.6928
▁petroleum	-11.6928
▁platinum	-11.6928
▁pleasure	-11.6928
▁pouches	-11.6928
▁prolactin	-11.6928
▁pronunciation	-11.6928
▁propulsion	-11.6928
▁quarantine	-11.6928
▁referendum	-11.6928
▁romantic	-11.6928
▁sirloin	-11.6928
▁speculation	-11.6928
▁stakeholder	-11.6928
▁surplus	-11.6928
▁tartar	-11.6928
▁taxpayer	-11.6928
▁unexpected	-11.6928
▁unlawful	-11.6928
▁vertices	-11.6928
▁victories	-11.6928
▁volunteer	-11.6928
▁vulnerabilities	-11.6928
▁İzmir	-11.6928
Percentage	-11.6928
Safety	-11.6928
▁Disney	-11.6928
▁Madison	-11.6928
▁activism	-11.6928
▁arbitrat	-11.6928
▁derivation	-11.6928
▁herself	-11.6928
▁peptide	-11.6928
▁spherical	-11.6928
▁wicket	-11.6928
▁casualties	-11.6928
▁commentary	-11.6928
▁sediment	-11.6928
▁silicon	-11.6928
▁stolen	-11.6928
▁tribute	-11.6928
Saddam	-11.6929
Target	-11.6929
invariant	-11.6929
▁CYP	-11.6929
▁amplifie	-11.6929
▁lecture	-11.6929
▁mandible	-11.6929
▁portrait	-11.6929
▁proliferat	-11.6929
▁alleged	-11.6929
▁banknote	-11.6929
▁för	-11.6929
▁meteorolog	-11.6929
soluble	-11.6929
▁buffer	-11.6929
▁issuance	-11.6929
▁tetrahedr	-11.6929
▁1918	-11.6929
▁dictat	-11.6929
▁rhea	-11.6929
▁arousal	-11.6929
▁blank	-11.6929
▁drill	-11.6929
Donald	-11.6929
▁Dublin	-11.6929
▁merger	-11.6929
▁cartoon	-11.6929
{\	-11.6929
ecession	-11.6929
▁transistor	-11.6929
▁landmass	-11.6929
▁regain	-11.6929
▁falcon	-11.6929
▁bananas	-11.6929
▁corps	-11.6929
▁hatch	-11.6929
▁slope	-11.6929
▁Vega	-11.6929
▁Lupin	-11.6929
▁1861	-11.6929
cessive	-11.6929
▁seroton	-11.6929
▁Dallas	-11.6929
▁threatened	-11.6929
▁cytosine	-11.6929
▁naked	-11.6929
▁Euler	-11.6929
▁resilien	-11.6929
▁yarn	-11.6929
Whorf	-11.6929
▁ABC	-11.6929
▁Model	-11.6929
▁Merit	-11.6929
▁uneven	-11.6929
▁jars	-11.6929
▁rectifie	-11.6929
视	-11.6929
▁Casey	-11.6929
▁Horse	-11.6929
▁ordain	-11.6929
▁Opera	-11.6929
▁Boston	-11.6929
▁denied	-11.6929
▁Deep	-11.6929
▁Layer	-11.6929
▁diversifi	-11.6929
ARPA	-11.693
▁Factor	-11.693
▁Crown	-11.693
▁hexa	-11.693
▁swan	-11.693
Method	-11.693
▁incubat	-11.6931
▁Somali	-11.6931
uctor	-11.6931
▁pipe	-11.6932
▁escalat	-11.6932
Sinai	-11.6933
▁Colon	-11.6935
▁seminar	-11.6936
neonat	-11.6936
FAS	-11.6937
lark	-11.6937
redict	-11.6938
pyru	-11.6946
lumps	-11.6947
▁boom	-11.6949
itcoin	-11.6953
2:1	-11.6962
▁Euro	-11.6963
Orient	-11.6967
▁divin	-11.6997
Blue	-11.701
Design	-11.7027
▁regenerati	-11.7048
▁Jenn	-11.7059
glory	-11.7064
formatted	-11.7104
Weight	-11.7318
▁arteri	-11.7432
ductive	-11.7509
187	-11.7638
Black	-11.7742
proportional	-11.7743
International	-11.7743
nuclear	-11.7743
decimal	-11.7743
essential	-11.7744
defined	-11.7744
volume	-11.7745
government	-11.7746
period	-11.7746
focus	-11.7747
epid	-11.7856
▁thermo	-11.7898
Plant	-11.7927
current	-11.793
▁muscul	-11.8021
scribes	-11.8041
bomber	-11.8105
▁mechanis	-11.8141
▁reasonabl	-11.8146
glaci	-11.8175
▁Child	-11.8177
▁vibra	-11.8178
sovereign	-11.8178
ă	-11.8178
▁mastectom	-11.8178
▁oxaloacet	-11.8178
Distribut	-11.8178
Guangdong	-11.8178
SMTP	-11.8178
▁ADHD	-11.8178
▁Prefecture	-11.8178
▁chastity	-11.8178
▁enlarge	-11.8178
▁hyphen	-11.8178
▁intravenous	-11.8178
▁polyhedra	-11.8178
▁reluctan	-11.8178
▁semiconductor	-11.8178
Emergency	-11.8178
Princip	-11.8178
antiparticle	-11.8178
epinephrine	-11.8178
glycoprotein	-11.8178
ncyclopedia	-11.8178
onuclease	-11.8178
othermic	-11.8178
sphenoid	-11.8178
ê	-11.8178
ì	-11.8178
γ	-11.8178
ζ	-11.8178
ς	-11.8178
≥	-11.8178
▁Agreement	-11.8178
▁Anderson	-11.8178
▁Archdiocese	-11.8178
▁Bourbon	-11.8178
▁Brooklyn	-11.8178
▁Burmese	-11.8178
▁Explore	-11.8178
▁Hangzhou	-11.8178
▁Jiangsu	-11.8178
▁Kublai	-11.8178
▁Legendre	-11.8178
▁McGovern	-11.8178
▁Mississippi	-11.8178
▁Narnia	-11.8178
▁Observ	-11.8178
▁Palestinian	-11.8178
▁Philip	-11.8178
▁Rachmaninoff	-11.8178
▁Robinson	-11.8178
▁Seljuk	-11.8178
▁Serjeant	-11.8178
▁Supercluster	-11.8178
▁Syndrome	-11.8178
▁Talmud	-11.8178
▁Unicode	-11.8178
▁Waltz	-11.8178
▁abrasive	-11.8178
▁acquittal	-11.8178
▁adolescen	-11.8178
▁aesthetic	-11.8178
▁alphavirus	-11.8178
▁aluminum	-11.8178
▁aristocrat	-11.8178
▁aromatic	-11.8178
▁biochemistry	-11.8178
▁bombardment	-11.8178
▁bullfighting	-11.8178
▁bureaucra	-11.8178
▁caffeine	-11.8178
▁cavalry	-11.8178
▁clergy	-11.8178
▁colleague	-11.8178
▁compressibility	-11.8178
▁congregation	-11.8178
▁contamination	-11.8178
▁coronavirus	-11.8178
▁dahlia	-11.8178
▁deficiencies	-11.8178
▁disturbance	-11.8178
▁ellipse	-11.8178
▁ensemble	-11.8178
▁envelope	-11.8178
▁eradication	-11.8178
▁evacuat	-11.8178
▁furniture	-11.8178
▁gunpowder	-11.8178
▁helicopter	-11.8178
▁hypertension	-11.8178
▁identities	-11.8178
▁inaccurate	-11.8178
▁influenza	-11.8178
▁installation	-11.8178
▁intercourse	-11.8178
▁irrigation	-11.8178
▁jersey	-11.8178
▁landowner	-11.8178
▁larynx	-11.8178
▁lithium	-11.8178
▁locomotion	-11.8178
▁mortgage	-11.8178
▁necessitat	-11.8178
▁neutrino	-11.8178
▁parasitic	-11.8178
▁plaintiff	-11.8178
▁possibilities	-11.8178
▁postpartum	-11.8178
▁quaternion	-11.8178
▁rebrand	-11.8178
▁recollection	-11.8178
▁reconstruct	-11.8178
▁remission	-11.8178
▁renovation	-11.8178
▁repertoire	-11.8178
▁residual	-11.8178
▁rhombus	-11.8178
▁sausage	-11.8178
▁scratch	-11.8178
▁settlers	-11.8178
▁skateboard	-11.8178
▁solstice	-11.8178
▁sterilization	-11.8178
▁striking	-11.8178
▁sulfate	-11.8178
▁tRNA	-11.8178
▁telescope	-11.8178
▁thalamus	-11.8178
▁trajectories	-11.8178
▁treasure	-11.8178
▁turkey	-11.8178
▁undirected	-11.8178
▁unnecessar	-11.8178
▁unprecedented	-11.8178
▁virtual	-11.8178
▁virtue	-11.8178
▁vocabulary	-11.8178
ø	-11.8178
Δ	-11.8178
▁Autonom	-11.8178
▁Clovis	-11.8178
▁Galaxy	-11.8178
▁Global	-11.8178
▁genealog	-11.8178
▁happy	-11.8178
▁interview	-11.8178
▁intestine	-11.8178
▁maturation	-11.8178
▁prospect	-11.8178
▁qualities	-11.8178
▁trademark	-11.8178
▁wrestl	-11.8178
oxidant	-11.8178
▁Calvin	-11.8178
▁Function	-11.8178
▁Marxist	-11.8178
▁Russell	-11.8178
▁Yellow	-11.8178
▁brainstem	-11.8178
▁gateway	-11.8178
▁hydrolysis	-11.8178
▁theatrical	-11.8178
̱	-11.8179
▁clarity	-11.8179
▁cliff	-11.8179
▁steadily	-11.8179
dictatorship	-11.8179
insurgenc	-11.8179
▁Semitic	-11.8179
▁censor	-11.8179
▁pornograph	-11.8179
▁yourself	-11.8179
ventilation	-11.8179
▁pylori	-11.8179
▁isoforms	-11.8179
▁synergistic	-11.8179
Blood	-11.8179
ymphon	-11.8179
▁Hindi	-11.8179
▁relics	-11.8179
▁Czech	-11.8179
▁beauty	-11.8179
▁motif	-11.8179
▁Bengal	-11.8179
▁capacitance	-11.8179
▁filings	-11.8179
▁mimic	-11.8179
▁Miami	-11.8179
▁menstrua	-11.8179
▁rigor	-11.8179
▁Virgo	-11.8179
▁Manila	-11.8179
▁accre	-11.8179
▁dementia	-11.8179
▁Foreign	-11.8179
▁cereal	-11.8179
otherapy	-11.8179
▁subsystems	-11.8179
▁crises	-11.8179
▁Liberia	-11.8179
▁gamma	-11.8179
▁svensk	-11.8179
▁Titan	-11.8179
▁Brahm	-11.8179
▁robes	-11.8179
▁Glass	-11.8179
ubcluster	-11.8179
▁refined	-11.8179
▁Algeria	-11.8179
▁Manuel	-11.8179
▁convinc	-11.8179
sitcom	-11.8179
▁Propert	-11.8179
▁Bosnia	-11.818
ocyst	-11.818
isochor	-11.818
nnotations	-11.818
▁rescue	-11.818
ologists	-11.818
▁procla	-11.8181
▁Protect	-11.8182
Policy	-11.8183
▁clima	-11.8183
ankara	-11.8183
▁prematur	-11.8186
▁rebel	-11.8186
conceal	-11.8186
Sahara	-11.8188
▁monopol	-11.8199
▁nitr	-11.82
Hydro	-11.8208
Situation	-11.8217
disposition	-11.8218
▁classify	-11.8269
Guyan	-11.8326
▁subtropic	-11.8385
existent	-11.8704
resistan	-11.8727
toleran	-11.8768
▁socio	-11.8803
levator	-11.8955
▁graduat	-11.9094
interpret	-11.9166
conduct	-11.917
purpose	-11.917
relevant	-11.9171
intervention	-11.9172
military	-11.9174
▁induce	-11.9259
gricultural	-11.9471
Hero	-11.9519
▁figur	-11.9544
immigrant	-11.9588
▁Morocc	-11.9591
▁replicat	-11.9596
Origin	-11.96
▁necro	-11.9606
▁tempo	-11.9606
▁Domini	-11.9607
complian	-11.9607
ư	-11.9607
ग	-11.9607
obsessive	-11.9607
š	-11.9607
▁adjective	-11.9607
▁mesoderm	-11.9607
▁outnumber	-11.9607
Babylonian	-11.9607
Fairtrade	-11.9607
Prussian	-11.9607
_6">	-11.9607
ankruptcy	-11.9607
blooded	-11.9607
nautilus	-11.9607
onsequently	-11.9607
satisfaction	-11.9607
tardigrade	-11.9607
tetrahydrofolate	-11.9607
Çukurova	-11.9607
∞	-11.9607
▁Algonquian	-11.9607
▁Aristotle	-11.9607
▁Armstrong	-11.9607
▁Baptist	-11.9607
▁Brussels	-11.9607
▁Budget	-11.9607
▁Cascade	-11.9607
▁Commune	-11.9607
▁Copán	-11.9607
▁Cyprus	-11.9607
▁Defense	-11.9607
▁Elizabeth	-11.9607
▁FLOW	-11.9607
▁Facebook	-11.9607
▁Florence	-11.9607
▁Félix	-11.9607
▁Herschel	-11.9607
▁Humayun	-11.9607
▁ISCII	-11.9607
▁Kampala	-11.9607
▁Kepler	-11.9607
▁Khmer	-11.9607
▁Krishna	-11.9607
▁Kurdistan	-11.9607
▁Legislativ	-11.9607
▁Louisiana	-11.9607
▁Maluku	-11.9607
▁Manchester	-11.9607
▁Marrakesh	-11.9607
▁Matthew	-11.9607
▁Nestlé	-11.9607
▁Paracelsus	-11.9607
▁Pentecost	-11.9607
▁Phillip	-11.9607
▁RETD	-11.9607
▁Railroad	-11.9607
▁Reconstruction	-11.9607
▁Revenue	-11.9607
▁SARS	-11.9607
▁Shakespeare	-11.9607
▁Simpson	-11.9607
▁Socrates	-11.9607
▁Speaker	-11.9607
▁Stockhausen	-11.9607
▁Sukarno	-11.9607
▁Survey	-11.9607
▁Traditional	-11.9607
▁Transformers	-11.9607
▁Venetian	-11.9607
▁Vladimir	-11.9607
▁WWII	-11.9607
▁Walker	-11.9607
▁aggression	-11.9607
▁amplification	-11.9607
▁aphasia	-11.9607
▁aqueducts	-11.9607
▁arbitrary	-11.9607
▁bipedal	-11.9607
▁centimetre	-11.9607
▁cerebell	-11.9607
▁chemotherapy	-11.9607
▁cigarettes	-11.9607
▁controversies	-11.9607
▁cryptocurrency	-11.9607
▁curriculum	-11.9607
▁decomposition	-11.9607
▁digestion	-11.9607
▁discomfort	-11.9607
▁disparities	-11.9607
▁eccentricity	-11.9607
▁embolism	-11.9607
▁expiration	-11.9607
▁fiberglass	-11.9607
▁fifteen	-11.9607
▁filmmaker	-11.9607
▁flammability	-11.9607
▁grenades	-11.9607
▁hegemony	-11.9607
▁horticultur	-11.9607
▁hygiene	-11.9607
▁hypogonadism	-11.9607
▁impeachment	-11.9607
▁implosion	-11.9607
▁inositol	-11.9607
▁intermittent	-11.9607
▁intriguing	-11.9607
▁intrinsic	-11.9607
▁legitimacy	-11.9607
▁magistrate	-11.9607
▁marmalade	-11.9607
▁masterpiece	-11.9607
▁messaging	-11.9607
▁methionine	-11.9607
▁miniseries	-11.9607
☉	-11.9607
和	-11.9608
在	-11.9612
ệ	-12.1274
∑	-12.1274
于	-12.1275
原	-12.1276
太	-12.1276
中	-12.1277
建	-12.1277
是	-12.1277
¬	-12.3274
∫	-12.3274
æ	-12.3274
ǝ	-12.3274
τ	-12.3274
ੁ	-12.3274
ổ	-12.3274
ò	-12.3274
Ψ	-12.3274
ο	-12.3274
и	-12.3274
ộ	-12.3274
“	-12.3274
∈	-12.3274
Å	-12.3274
ʻ	-12.3274
∂	-12.3274
ว	-12.3274
为	-12.3275
眼	-12.3275
元	-12.3277
\	-12.5773
神	-12.5774
島	-12.5774
ȳ	-12.5774
р	-12.5774
ṭ	-12.5774
ả	-12.5774
ầ	-12.5774
ễ	-12.5774
ủ	-12.5774
🌿	-12.5774
🏆	-12.5774
ə	-12.5774
χ	-12.5774
е	-12.5774
∨	-12.5774
来	-12.5774
医	-12.5774
要	-12.5775
然	-12.5775
这	-12.5776
现	-12.5777
区	-12.5778
年	-12.5778
前	-12.5779
国	-12.578
秦	-12.5781
[	-12.8675
美	-12.9107
ē	-12.9107
ί	-12.9107
ş	-12.9107
ọ	-12.9107
¥	-12.9107
ù	-12.9107
κ	-12.9107
य	-12.9107
ị	-12.9107
ỏ	-12.9107
ồ	-12.9107
ớ	-12.9107
ờ	-12.9107
ứ	-12.9107
∅	-12.9107
∩	-12.9107
⋅	-12.9107
î	-12.9107
̂	-12.9107
ħ	-12.9107
า	-12.9107
被	-12.9107
科	-12.9108
如	-12.9108
理	-12.9108
心	-12.9109
老	-12.9109
、	-12.9109
但	-12.9109
南	-12.9109
光	-12.911
以	-12.911
城	-12.911
过	-12.911
部	-12.911
可	-12.9111
能	-12.9111
当	-12.9112
了	-12.9113
赵	-12.9114
时	-12.9115
о	-13.4107
奶	-13.4107
ⲁ	-13.4107
ʾ	-13.4107
υ	-13.4107
ϧ	-13.4107
г	-13.4107
ا	-13.4107
ل	-13.4107
م	-13.4107
ი	-13.4107
Π	-13.4107
諸	-13.4107
¡	-13.4107
ë	-13.4107
ï	-13.4107
û	-13.4107
ğ	-13.4107
ĩ	-13.4107
ż	-13.4107
ơ	-13.4107
ɛ	-13.4107
Γ	-13.4107
Ω	-13.4107
η	-13.4107
ι	-13.4107
й	-13.4107
м	-13.4107
ы	-13.4107
द	-13.4107
व	-13.4107
ु	-13.4107
ਦ	-13.4107
ਿ	-13.4107
ḥ	-13.4107
ẹ	-13.4107
ở	-13.4107
‰	-13.4107
←	-13.4107
↔	-13.4107
⊕	-13.4107
⊙	-13.4107
ⲙ	-13.4107
ⲱ	-13.4107
护	-13.4107
碁	-13.4107
而	-13.4107
꞉	-13.4107
🌱	-13.4107
👑	-13.4107
📜	-13.4107
😍	-13.4107
群	-13.4107
↓	-13.4107
对	-13.4108
正	-13.4108
小	-13.4109
有	-13.4109
法	-13.4109
祈	-13.4109
镜	-13.4109
安	-13.4109
由	-13.4109
从	-13.411
或	-13.411
手	-13.411
生	-13.4111
个	-13.4112
就	-13.4113
立	-13.4113
设	-13.4113
🇸	-14.4049
🇪	-14.405
题	-14.4051
问	-14.4052
行	-14.4053
虽	-14.4054
花	-14.4055
第	-14.4056
政	-14.4057
指	-14.4058
括	-14.4059
市	-14.406
官	-14.4061
奄	-14.4062
古	-14.4063
变	-14.4064
化	-14.4065
包	-14.4066
信	-14.4067
依	-14.4068
作	-14.4069
仰	-14.407
一	-14.4071
ể	-14.4072
ḷ	-14.4073
ǎ	-14.4074
ń	-14.4075
Á	-14.4076
~	-14.4077
需	-14.4078
疗	-14.4079
治	-14.408
朝	-14.4081
地	-14.4082
公	-14.4083
₩	-14.4084
๊	-14.4085
ี	-14.4086
ิ	-14.4087
อ	-14.4088
ซ	-14.4089
ũ	-14.409
Ø	-14.4091
方	-14.4092
改	-14.4093
善	-14.4094
代	-14.4095
ਸ	-14.4096
ਚ	-14.4097
ौ	-14.4098
र	-14.4099
Σ	-14.41
Ş	-14.4101
Ô	-14.4102
度	-14.4103
看	-14.4103
角	-14.4103
学	-14.4103
„	-14.4104
取	-14.4105
议	-14.4105
采	-14.4105
ấ	-14.4105
绘	-14.4106
ę	-14.4106
ő	-14.4107
ś	-14.4107
ș	-14.4107
Б	-14.4107
д	-14.4107
ְ	-14.4107
ֲ	-14.4107
ָ	-14.4107
ֹ	-14.4107
ו	-14.4107
מ	-14.4107
ע	-14.4107
צ	-14.4107
ئ	-14.4107
ة	-14.4107
س	-14.4107
ط	-14.4107
ف	-14.4107
ਗ	-14.4107
ა	-14.4107
კ	-14.4107
ლ	-14.4107
ნ	-14.4107
ხ	-14.4107
ṓ	-14.4107
Ⲡ	-14.4107
い	-14.4107
し	-14.4107
č	-14.4107
Ž	-14.4107
ɨ	-14.4107
ਆ	-14.4107
Ḥ	-14.4107
ṛ	-14.4107
囲	-14.4107
宣	-14.4107
梅	-14.4107
菜	-14.4107
Î	-14.4107
@	-14.4107
«	-14.4107
®	-14.4107
»	-14.4107
Ä	-14.4107
Ü	-14.4107
ý	-14.4107
Ā	-14.4107
ć	-14.4107
ė	-14.4107
ě	-14.4107
Ł	-14.4107
œ	-14.4107
Š	-14.4107
ŵ	-14.4107
ź	-14.4107
ǒ	-14.4107
ɔ	-14.4107
ɪ	-14.4107
ʔ	-14.4107
ˈ	-14.4107
έ	-14.4107
ή	-14.4107
ξ	-14.4107
ό	-14.4107
ύ	-14.4107
М	-14.4107
Т	-14.4107
Ш	-14.4107
а	-14.4107
б	-14.4107
в	-14.4107
ж	-14.4107
з	-14.4107
л	-14.4107
т	-14.4107
ц	-14.4107
я	-14.4107
ִ	-14.4107
ׁ	-14.4107
ח	-14.4107
י	-14.4107
ק	-14.4107
ש	-14.4107
ת	-14.4107
ب	-14.4107
ن	-14.4107
و	-14.4107
म	-14.4107
ि	-14.4107
ृ	-14.4107
ै	-14.4107
्	-14.4107
ਜ	-14.4107
ਾ	-14.4107
ด	-14.4107
น	-14.4107
ṅ	-14.4107
ṇ	-14.4107
Ṭ	-14.4107
ẖ	-14.4107
ẩ	-14.4107
ẫ	-14.4107
ậ	-14.4107
ắ	-14.4107
ề	-14.4107
ố	-14.4107
ỗ	-14.4107
ợ	-14.4107
ừ	-14.4107
ự	-14.4107
ὦ	-14.4107
ὶ	-14.4107
‘	-14.4107
⇒	-14.4107
⇔	-14.4107
∀	-14.4107
≠	-14.4107
⌋	-14.4107
⚽	-14.4107
✗	-14.4107
✨	-14.4107
の	-14.4107
へ	-14.4107
三	-14.4107
事	-14.4107
佑	-14.4107
佩	-14.4107
使	-14.4107
侍	-14.4107
关	-14.4107
助	-14.4107
协	-14.4107
君	-14.4107
器	-14.4107
宋	-14.4107
实	-14.4107
常	-14.4107
干	-14.4107
庇	-14.4107
情	-14.4107
戴	-14.4107
扣	-14.4107
措	-14.4107
描	-14.4107
施	-14.4107
样	-14.4107
案	-14.4107
段	-14.4107
民	-14.4107
灵	-14.4107
用	-14.4107
矫	-14.4107
碧	-14.4107
祷	-14.4107
種	-14.4107
統	-14.4107
翼	-14.4107
者	-14.4107
肉	-14.4107
脉	-14.4107
赖	-14.4107
适	-14.4107
间	-14.4107
霞	-14.4107
预	-14.4107
️	-14.4107
🌴	-14.4107
🏰	-14.4107
👇	-14.4107
💡	-14.4107
💪	-14.4107
📸	-14.4107
🖥	-14.4107
🚉	-14.4107
🤔	-14.4107
🥇	-14.4107
Č	-14.4107
Р	-14.4107
ч	-14.4107
ṣ	-14.4107
⌊	-14.4107
ꜥ	-14.4107
ώ	-14.4107
ข	-14.4107
ห	-14.4107
ํ	-14.4107
与	-14.4108
保	-14.4108
奉	-14.4108
女	-14.4108
确	-14.4108
祇	-14.4108
认	-14.4108
靠	-14.4108
§	-14.4108
上	-14.4109
下	-14.4109
丧	-14.4109
主	-14.4109
些	-14.4109
减	-14.4109
单	-14.4109
增	-14.4109
大	-14.4109
失	-14.4109
孔	-14.4109
属	-14.4109
希	-14.4109
带	-14.4109
意	-14.4109
慰	-14.4109
断	-14.4109
无	-14.4109
望	-14.4109
次	-14.4109
注	-14.4109
真	-14.4109
着	-14.4109
瞳	-14.4109
程	-14.4109
等	-14.4109
纯	-14.4109
自	-14.4109
节	-14.4109
言	-14.4109
调	-14.4109
近	-14.4109
还	-14.4109
通	-14.4109
长	-14.4109
降	-14.4109
随	-14.4109
龄	-14.4109
δ	-14.4109
求	-14.411
±	-14.411
今	-14.4111
位	-14.4111
到	-14.4111
同	-14.4111
咨	-14.4111
定	-14.4111
家	-14.4111
应	-14.4111
性	-14.4111
散	-14.4111
早	-14.4111
晋	-14.4111
更	-14.4111
果	-14.4111
源	-14.4111
溯	-14.4111
片	-14.4111
特	-14.4111
疾	-14.4111
病	-14.4111
管	-14.4111
董	-14.4111
衰	-14.4111
诊	-14.4111
远	-14.4111
追	-14.4111
造	-14.4111
镇	-14.4111
鞅	-14.4111
Ç	-14.4111
∆	-14.4112
不	-14.4113
专	-14.4113
业	-14.4113
供	-14.4113
山	-14.4113
提	-14.4113
西	-14.4113
询	-14.4113
载	-14.4113
针	-14.4113
Φ	-14.4113
Ś	-14.4114
之	-14.4115
他	-14.4115
们	-14.4115
历	-14.4115
史	-14.4115
师	-14.4115
记	-14.4115
郡	-14.4115
验	-14.4115
Đ	-14.4115
İ	-14.4116
内	-14.4117
出	-14.4117
名	-14.4117
周	-14.4117
得	-14.4117
称	-14.4117
获	-14.4117
该	-14.4117
边	-14.4117
ế	-14.4117
̄	-14.4118
军	-14.4119
将	-14.4119
蒙	-14.4119
đ	-14.4119
€	-14.412
ñ	-14.4121
击	-14.4121
攻	-14.4121
骜	-14.4121
£	-14.4122
✓	-14.4123
成	-14.4123
期	-14.4123
